/**
  ******************************************************************************
  * @file    gesture_model_data_params.c
  * @author  AST Embedded Analytics Research Platform
  * @date    2025-05-15T12:18:37+0200
  * @brief   AI Tool Automatic Code Generator for Embedded NN computing
  ******************************************************************************
  * Copyright (c) 2025 STMicroelectronics.
  * All rights reserved.
  *
  * This software is licensed under terms that can be found in the LICENSE file
  * in the root directory of this software component.
  * If no LICENSE file comes with this software, it is provided AS-IS.
  ******************************************************************************
  */

#include "gesture_model_data_params.h"


/**  Activations Section  ****************************************************/
ai_handle g_gesture_model_activations_table[1 + 2] = {
  AI_HANDLE_PTR(AI_MAGIC_MARKER),
  AI_HANDLE_PTR(NULL),
  AI_HANDLE_PTR(AI_MAGIC_MARKER),
};




/**  Weights Section  ********************************************************/
AI_ALIGNED(32)
const ai_u64 s_gesture_model_weights_array_u64[16024] = {
  0x3c93cd61baaf726eU, 0xbcb999e23d472d15U, 0x3d704e40bdb4f713U, 0x3d8c0f153dabcffeU,
  0xbc0a12cdba9da578U, 0x3d98e5b33da3f2d4U, 0xbc87447c3ce29b57U, 0x3dba5a763d66eb11U,
  0xbd4dda5fbd3333b0U, 0x3d23fc6fbd8ca3a1U, 0xbd0371c63d266b6dU, 0x3d9797f83b04656eU,
  0x3da6593abc3380c5U, 0xbd81f88fbdb316c9U, 0x3d8343cc3d773d0eU, 0x3c9fabf33cd21ccaU,
  0xbc377e883ce4d2ffU, 0xbd39e1593d92292bU, 0x3d86561c3d9af938U, 0x3db9d8113c16554bU,
  0x3d692698bc865b91U, 0xbd77880a3da2f492U, 0x3d82459b3c9730b2U, 0xbbf291ee3cad81c2U,
  0x3c4623f5bd3805d7U, 0x3d9ef22ebbc50290U, 0x3d0216133d955083U, 0x3d03ebd53cd01542U,
  0x3d98c90dbd8e299eU, 0x3d6865e8bddb5d9dU, 0x3d4b33bbbcadfd3bU, 0x3e02cb623c0ec7fcU,
  0x3d8e00abbd7137a7U, 0xbcf95b783dade1fbU, 0x3dd460c1bbe1448cU, 0x3cf26544bc84adffU,
  0xbde1944bbd0a475fU, 0x3e1438d63db3ca01U, 0xbd10da2abde7f646U, 0xbd193a7e3d184a82U,
  0x3dadf5533c97dd43U, 0xbd3e7fc9bceb5570U, 0x3c2491e6bd9d365aU, 0x3dc832de3db3a116U,
  0xbca24e5abd32e0fdU, 0x3cf4cddd3d9d9f4cU, 0x3dca20063cd07c1aU, 0x3c3033db3b41f734U,
  0x3d9c1da1bc42825dU, 0x3c04ecdc3d9f0ad0U, 0xbd959adfbd5b38bdU, 0xbd0a3e1c3d841225U,
  0x3d844d2c3d7fa321U, 0xbd8a128a3cda7eaeU, 0xbcc4c4f1bd84a7afU, 0x3d9700f4bc6c94beU,
  0x3d43dcffbcb3f00cU, 0xbc7b8bb7bdbc74bcU, 0x3d87281bbdbd760aU, 0x3b6f5b593d6acd88U,
  0x3dbfdf7e3d19ec72U, 0x3e24d3323d17681eU, 0xbd77748dbd81ebb5U, 0x3cd11ee9bad5ba1cU,
  0x3e144b2fbd5c952dU, 0x3cb9a898bd94d951U, 0x3db419c4bbf30bf2U, 0x3de7f04bbd9454f4U,
  0x3d31d02b3d2c880bU, 0x3c238653bd5a1135U, 0x3d1772aabdec6e7fU, 0x3c15054cbdd312cdU,
  0xbd3ac6c43d82b664U, 0x38cb1809bcef963eU, 0xbc36bc153c153fd3U, 0x3df774863d2684c6U,
  0x3dd01efe3d142ea8U, 0xbd83c6963cf9e0c8U, 0x3ddb930a3d0e3ed6U, 0x3c321c80bc7136d9U,
  0x3c33a28d3c9c83bfU, 0x3d44ecf83d9445ceU, 0x3d47a766bda3d76bU, 0x3c024688bb2d8749U,
  0xbd1326713d98e37eU, 0x3d51dae23dc220c7U, 0xbdc7374fbc961af2U, 0x3cf8e6ef3dc9a94fU,
  0xb986cd8abda1bd3eU, 0x3d520afebc8518f3U, 0xbb9a245fbc611e50U, 0x3d7adc7bbd0b247eU,
  0xbcb79888bc338837U, 0xbd8e1448bbc14bf1U, 0x3caa784d3d68ebe4U, 0x3da51a55bd9a29f5U,
  0xbd64134d3cb675c5U, 0x3db4acc13c4b6e1bU, 0xbd032107bba2b3a8U, 0x3db271c0bd161f37U,
  0xbd844e503daf11f9U, 0x3d7456143d5e2817U, 0x3b9c866d3c7b6597U, 0xbd5a81963b396df5U,
  0xbd47e4e9bdbe2d29U, 0xbc4d91afbc5b7783U, 0xbd21e9a43e128ff3U, 0xbd8904c33d042f79U,
  0xbd981ab7bdbbc7cdU, 0xbc8964d43e136f4aU, 0xbd7f8969bc8f89fbU, 0x3dbc4f2b3d4cc021U,
  0x3d787f743e074b0dU, 0xbced08fc3da5570cU, 0xbdb05e9dbdcfb640U, 0x3d34d3cc3e088a25U,
  0xbd4b29a93b86deb7U, 0xbd920163bd578cedU, 0xbd53f6c73c45dca4U, 0xbdb066de3c98c665U,
  0xbd887ce63cff3bd9U, 0x3d51a2dc3daf63eeU, 0x3d6fb6563cbef88dU, 0xbda0b9c13b9086d3U,
  0xbcbfac91bc07b3e5U, 0x3d3480d83dc0ab2bU, 0x3da6cbaebd616026U, 0x3ca09d3d3d1cf278U,
  0x381d9e183dbcc5a2U, 0x3d40987d3d5d17dbU, 0xbdd777b8bc112860U, 0x3d93a541bcfc9438U,
  0x3bcc705cbd0880f6U, 0x3d2ebbca3d2ee6d4U, 0xbd6aa93b3d6aa472U, 0x3bb50c883d6652adU,
  0x3d46dfa1bc4c55e2U, 0xbd8753ac3c100842U, 0x3d9af96bbd9b822cU, 0x3d50a1fc3cfa3889U,
  0xbd92fac0bc84eb64U, 0xbc5c7a3dbdaa1d82U, 0x3d625afe3d86f2a7U, 0xbd8523ae3d3c446eU,
  0xbd47daeb3db54c37U, 0xbdc97037bd242bb6U, 0x3bb10b15bda10945U, 0x3bf224393d4f5497U,
  0xbddd174b3d991fb4U, 0x3d9744b5bd960c81U, 0xbd13bd763c730e18U, 0xbd025e603d4432d3U,
  0x3d3345adbc5dac39U, 0xbd230ae83d467f5fU, 0x3d27ebc9bd9ab62eU, 0x3d89f14abd92c72aU,
  0x3cd3489a3d572989U, 0x3d639b9a3d9414edU, 0xbd92c491bc95cfe8U, 0x3d5c8569bc095c44U,
  0x3ceb111dbad239d3U, 0x3d1f7eac3d444d05U, 0xbcfb93bd3dc0325fU, 0x3d2d31f9bc72d9f8U,
  0x3abac810bd859e67U, 0x3d23ea21bd9e4913U, 0x3d38a5863d6855adU, 0x3dd275493cb35676U,
  0xbc38ff993b762758U, 0x3d4359593d994374U, 0x3dca0c9fbd57173dU, 0xbd7b1ebebc3b86b8U,
  0xbd48bd3abd40039dU, 0x3d010490bcf9d96aU, 0x3d3f65afbd39b195U, 0xbccd1cf23cae1e7bU,
  0x3c404d99bd8b9a6dU, 0x3d8d96d2bc75b0d1U, 0xbdea992bbd87dd72U, 0x3dd2950b3d314642U,
  0xbb451a413d541029U, 0xbbb02a723d18553eU, 0xbdab2c8f3daec8c9U, 0x3d3c43ed3d98c27cU,
  0x3b6a84d93ba47df8U, 0xbd67f527bd60ef47U, 0x3d11de7b3dac632bU, 0x3d0f4af03b8f6cd6U,
  0x3d067049bdb1318dU, 0x3cdb49b13d9b1edaU, 0xbd968f1d3b049659U, 0xbd1011903d95eb5cU,
  0x3bbd6ae1bdbcb4f1U, 0x3c08c0d0bcc1ea9bU, 0xbc5dc7e43c143290U, 0x3c0e54a1bd80d8d8U,
  0xbd2fb8f83caf2000U, 0x3ba2d68b3cb3e453U, 0x3c7c259abc0cbac6U, 0x3cc4f4c43d122de3U,
  0x3ba816b4bc687d10U, 0x39c407373c328682U, 0xbd52de88bbf2c119U, 0xbc451836bd5f5d85U,
  0x3cc62fb4bd22754dU, 0xbd54b2b03c0ec635U, 0xbda017663d367f1fU, 0x3cb084f73d88f7a4U,
  0xbcbc55f43da1fd89U, 0xbd4deeaa3db1ce0dU, 0xbd306e3abd82bc72U, 0x3c1b60773d07e840U,
  0xbd62b3813d649608U, 0xbd9aa2d6bd0887b8U, 0x3c5b7c17bcdd458eU, 0x3d83a8ef3c23c84bU,
  0x3db401ba3c7edf92U, 0xbd1d635b3cf96c42U, 0x3c63604b3d515064U, 0x3db5208f3da7dc88U,
  0x3d6b13df3d77e6eaU, 0x3d968090bd374e7aU, 0xbc835d283db134d0U, 0x3c1c71123d518e5cU,
  0xbdb327323c5713f0U, 0x3d4ca7a7bdb09223U, 0xbc1acc81bb75e237U, 0xbd799252bdb5f17bU,
  0x3dc175643d1bf94eU, 0xbd754f433d1ceea5U, 0xbd9e4be03bed8dceU, 0xbd994e69bc67b9fdU,
  0xbd53ca8ebd28c23fU, 0xbc8a8ef43db6ac56U, 0xbd9ba6bbbd602832U, 0xbdc5f904bd298ffdU,
  0x3cb9d276bd5e7547U, 0xbc62983dbbbaf0f2U, 0x3d152fdb3d1f5068U, 0x3d0d862fbda921eaU,
  0x3ddb8162bda2de44U, 0xbccfd3a33d3e78d1U, 0x3d6da2783d501c45U, 0x3dbf6349bd594238U,
  0xbcd3ebe4bb81127cU, 0xbd60d67ebc23b26dU, 0x3ca9ecc03dbd96bfU, 0xbdab645abbd0a167U,
  0x3ca71b36bdc062adU, 0xbcb2ff413c536f97U, 0x3d87e1283d8a4ef1U, 0xbdbf318bbcd07412U,
  0x3dd19f123d28c098U, 0xbd8464cfbcf2b50eU, 0x3d8d04f8bce2debeU, 0xbd36aee5bbc6ed1eU,
  0xbd56caf1bbe0bfceU, 0x3d766028bd38827bU, 0xbd91025a3db46d7aU, 0x3d758ce2ba591fb5U,
  0xbd95c5d83db2debcU, 0xbd9c76453cd0addfU, 0xbc0f627ebdb33b52U, 0xbdc13c593d901b15U,
  0xbd6eeab6bc684733U, 0xbaf6c8933d0054b9U, 0x3d40c1da3d592146U, 0x3daeb908bd50ced5U,
  0xbd297c5cbb81bd67U, 0xbc861eb8bd44497dU, 0xbc112ff33d8268a8U, 0xbc015823bd9749daU,
  0x3d945b673d87ab5cU, 0x3d082bb03c9486ddU, 0xbdc9a7d9bbec0857U, 0x3c0b23eebc6c7726U,
  0xbcd377243d00e81aU, 0x3d4fbbdcbd45cc3bU, 0xbc3142e9bd4020a7U, 0xbd78ed89bdb95f83U,
  0x3da99e3f3d7fab7eU, 0xbc156ef03d51714dU, 0x3d73e973bd92ab4eU, 0xbd33781abda439caU,
  0x3cf5da633da95f03U, 0x3d04575c3d97cd15U, 0x3c9edc45bd8f9328U, 0xbd8696b73d4f08c5U,
  0xbcea19013d7460b4U, 0x3da7b42d3d400de5U, 0xbdbd8878bd92bf12U, 0xbd9989e5bd17d341U,
  0xbc812ed53c0b51c2U, 0xbd06c1cc3da3fcdfU, 0xbd650313bb8c1346U, 0x3d90551ebd332d6cU,
  0xbdb5a778bb673542U, 0xbd909a23bd114a70U, 0xbdc3fc7ebd651c9dU, 0x3c8e659d3daca26bU,
  0xbda57efe3cc471fbU, 0xbc2538643d9610abU, 0xbcd10f82bd5ac708U, 0x3dcf58dfbd9c62a3U,
  0x3da5d4ffbd4298baU, 0x3d102c6abd5461e6U, 0xbd4fd25cbcae5c09U, 0xbd2fea503d7a8254U,
  0xbdafe4cebc8cfd74U, 0x3d6657083c80faf1U, 0xbcbe5c55bd639384U, 0xbd3bcde83d01a2e6U,
  0x3d2c6073bd2ae6d2U, 0x3c0305183ca2e1c1U, 0x3da4dc013c5a9e7cU, 0x3cb00e39bd85443dU,
  0xbd829bc8bd878774U, 0xbdac300a3cbbca93U, 0x3d585da4bdca788dU, 0x3d903c0ebd941f90U,
  0x3b6c64ccbc601cf2U, 0xb8f0d210bd000972U, 0xbca40cddbda01f0eU, 0x3d5cf625bdbe34b8U,
  0xbd2b14313bd4f9cdU, 0x3d010b17bd2bff6bU, 0x3db14a063d80e0e2U, 0x3b6a21d43d424beeU,
  0x3d9b538fbd18ed2dU, 0x3ca51e493c252c1dU, 0xbcf5de2cbd4311d2U, 0xbb08ea373d1a2f43U,
  0xbd7aacb5bdc9a81cU, 0xbc7138923b6e5faaU, 0x3b3b59bebd6fda69U, 0x3d39a3673d54f5c4U,
  0xbd85dace3d421c41U, 0x3d1de4083c700330U, 0x3d180dd8bd232444U, 0xbcc8c814bb9cc4dfU,
  0xbced8ed63d24fba1U, 0xbc5f90e23c9a453eU, 0x3d3b0a8d3d8bdc71U, 0xbd9d41553d71a7eeU,
  0x3d36ad0ebd95f654U, 0xbd5f860d3b372406U, 0xbdb963fbbbc0b057U, 0xbdb413fbbdbf5ce9U,
  0x3d79951dbd748a2cU, 0x3cd041f83d5e950cU, 0xbcddf30dbd910365U, 0x3db48cbe3da90f61U,
  0xbba1afa9bc6a2392U, 0x3d2767dfbdb7db41U, 0x3d8ab183bd1d4701U, 0x3bb524b0bc3fc3d2U,
  0xbcfda06a3db21253U, 0x3d9cacc7bc3de58fU, 0x3d5ddf383da71b38U, 0x3da53bd23d9a58b6U,
  0x3d3e113abd32bc88U, 0xbdacf065bda1739fU, 0xbd70af843d970373U, 0x3d8a32f4bbfdb97cU,
  0x3d815dc3bdc7a201U, 0x3db19f623d1387fdU, 0xbd83b3ec3b7cb364U, 0xbc5bcd243ceac881U,
  0xbc3a56a63cfc099fU, 0xbd9f1063bd0da659U, 0xbda54c55bdc3d76bU, 0x3c25db75bc6b65e5U,
  0x3d79d1e63c405c26U, 0x3d9fe1843dad1145U, 0xbd1245ffbcbf538aU, 0x3c75e78c3da2c2e9U,
  0xbdc1cb763d563245U, 0x3da921e63c3eac57U, 0x3db53842bd8428e4U, 0x3d9eb8fa3d81acbfU,
  0xbd2856333d89656eU, 0x3d606f1dbcff0efeU, 0x3cbed462bd845ad0U, 0x3d942d263d9670e8U,
  0x3d7f567b3ccd5108U, 0x3cf0332ebcaffe82U, 0xbd9d33483cd7c6f2U, 0xbc2bb23e3cefcf90U,
  0xbd8e3bb9bd418b80U, 0xbd47123fbd656d0eU, 0xbdaef5303c0a50f3U, 0xbd135dfdbd8eeedcU,
  0x3b387318bdaccd22U, 0xbdb96e4fbc8c0e84U, 0xbd317beb3ca6a1b8U, 0xbd0d0002bdcac527U,
  0xbd8c93333d7b7a2cU, 0xbd1648943d3b6584U, 0xbcaf3c49bd0c63c5U, 0x3c6c6a023d27d13bU,
  0xbc5b8d083d178e87U, 0xbd8e71353caf1eb9U, 0x3d90443e3cc15ab0U, 0xbd27be3cbcd143adU,
  0x3d9da26bbc73b562U, 0xbdaec8c53d797373U, 0xb82115e0bca24d4aU, 0x3d0245e53ce6c0e1U,
  0xbdb4a3083d0815e7U, 0x3d60e27b3d63c0bcU, 0x3d9b79dcbd43bd93U, 0x3cf67776bd56b528U,
  0xbd8a62903d5eebf1U, 0x3d4c4300bcabeacaU, 0x3d82f222bd104aa7U, 0x3da3f0483c65938dU,
  0xbd5197913cf6a77bU, 0x3c6d79d23d5a9c49U, 0x3d92213cbd4c3503U, 0xbdbbab8e393c6ae0U,
  0x3d04e3f53d15068dU, 0x3d08bc733db07662U, 0x3d82997fbbe15397U, 0xbd94fc79bdb58130U,
  0x3db39970bda1fcaaU, 0xbcf2a31b3d652c4bU, 0xbdae4ae6bd835938U, 0xbcf9077dbda6540dU,
  0x3d8dfbb63ac5a5c8U, 0xbd6232ad3c2da471U, 0xbd83f0c03da15a72U, 0x3c4ca5c5bd2f5174U,
  0xbd96d7ad3db202e8U, 0x3d95bf97bd5f3d9eU, 0x3c78d481bd9130b9U, 0x3c11bbcdbbbf3f2cU,
  0xbd9029cc3d94ae4dU, 0x3b62a7283c424850U, 0xbb9a36f13d8f8a73U, 0xbdc940503d7d9a45U,
  0xbdba4a85bd222564U, 0xbcaa0f6dbb40a694U, 0x3d60088e3d9c51f8U, 0xbcfa471d3d04e674U,
  0xbd3fd4eabd8441a5U, 0x3d47b1c4bc6d4a5cU, 0xbdac49723da8f0cfU, 0xbdc8f6ec3d9e08a0U,
  0xbd2dbe84bd009092U, 0x3d927edfbdc17ac2U, 0x3d5455fcbc176494U, 0xbd704b073c1ee79fU,
  0xba4407943d2dda09U, 0xbd752506bdb2e4bdU, 0xbc1635f3bcc1e289U, 0x3da549dc3bac932fU,
  0xbbf9b7353d8a8784U, 0xbcbb9f67bd856e6cU, 0x3d5711a33d1506efU, 0xbd7f1529bd6c7c45U,
  0xbda7fd10bd88dcdeU, 0xbc29a39abcc95028U, 0xbd0ce5503b8f31d0U, 0x3d1ac4093c1fe6caU,
  0x3ca978513cac38d2U, 0xbd86dcd33d9f8a5cU, 0x3d99707bbd17b3eaU, 0xbbe29dadbdb89d3cU,
  0x3ce0b4903d2e8743U, 0x3da642333d248503U, 0xbb8bb040bd8f1782U, 0xbd06e8ac3d9b700bU,
  0x3d91a128bb03dc74U, 0xbbc79b60bdbc1c96U, 0xbdc9c3c6bca7422dU, 0x3cc267f53c099d08U,
  0x3cf2b0723d2acbadU, 0x3d8fb687bd9878ddU, 0x3ccff2ebba2f4816U, 0xbd3996b03d4d1b4bU,
  0xbd564b7d3c330ed1U, 0xbb6e43493d87e371U, 0xbd2112e4bb821d8eU, 0xbdc5e0c4bd986b75U,
  0x3dabe63cbd5f7dceU, 0x3d2cebd8bd87e308U, 0xbd8829673d449790U, 0xbd60f26a39376d98U,
  0xbd7ba990bd30a14cU, 0xbd1960533d811670U, 0x3d256a12bd844f2cU, 0xbd8a4504bda8239cU,
  0xbd5c08fd3d56032cU, 0xbd828813bd21cafdU, 0xbda6328c3d5b3deaU, 0x3d95b5da3c306dd2U,
  0x3c7f79d4bcc6732cU, 0xbd836f213db4de72U, 0x3b806d4f3d179bdfU, 0x3d131dea3d0e4203U,
  0x3d0bbc40bd2090bbU, 0x3d45730f3d55ad3cU, 0x3c2a7613bc6e8942U, 0x3a4855f43cfd06ceU,
  0x3cb43a3c3cc21ed8U, 0x3d61865cbd1ce31dU, 0x3c5b06763d2e1fbeU, 0xbdb57d99bc3513e4U,
  0xbdca4d9fbbf9c33cU, 0xbd8006c8bc9868e6U, 0x3db2bed6bd816020U, 0x3db023303da50408U,
  0x3d889463bcc6842cU, 0x3c852644bd884daaU, 0x3cbc26cbbc001f9aU, 0x3d8e094c3ace7442U,
  0xbc90bc1bbd030a53U, 0xbcc96ddbbc24d4dfU, 0xbd53e4c83d870170U, 0x3bd4be8ebd8a4443U,
  0x3d8eb4743d8c77a7U, 0x3d6bd65fba80a41aU, 0x3cc92e033d5c52b0U, 0x3d2ab49b3dae2e60U,
  0x3d3f3456bd2a234bU, 0xbda9ee38bd1e0af3U, 0xbd012bb23bbdeea2U, 0x3d58239ebb8b9418U,
  0x3d8ee062bd327648U, 0xbcbadd37bcb3d1eaU, 0x3db0c1c3bced3dd0U, 0x3cf3ce1fbd65efb6U,
  0xbd8dbcb53db0d38bU, 0x3d8cbe923d96ca37U, 0x3d865321bb8c5eefU, 0xbd76af1abc8de031U,
  0xbd87b5f83d964042U, 0x3d43a0e73d613de4U, 0x3d4b06d53d579023U, 0xbd9c9632bd978d24U,
  0xbdbd6146bd1eb994U, 0xbd149b1f3d4b7b15U, 0x3db0f3c6bc8ba12aU, 0x3c65c14dbda1d453U,
  0x3d3d77e9bd8e896aU, 0xbd45733b3d06a7acU, 0x3c29c3663cffa7ccU, 0x3c0bd424bb04332cU,
  0xbda745a0bd3abbe3U, 0xbd6abf08bbfdd9d1U, 0x3d7c85b33d846cb4U, 0xbd3112debdb3427eU,
  0x3daf9b343da7f344U, 0xbd07d9953cb63136U, 0x3d6a070fbc81af54U, 0xbd02f22bbd82d155U,
  0xbdae7571baea2b60U, 0xbc03588cbd104912U, 0xbdab8493bcd43711U, 0xbd4d08843d2a98d3U,
  0xbb323ff73daf79acU, 0xbdca679cbd4b326bU, 0x3d4e0cd3bdafc652U, 0xbdc40dd1bc518274U,
  0x3d46fa31bd534828U, 0xbdc93236bd255768U, 0xbcd038cf3d8ef890U, 0x3d336103bb328204U,
  0x3d4128d73c504d96U, 0xbcd27285bda68b6cU, 0x3d3316833d8cc71aU, 0x3d9f8dabbdb2dc92U,
  0x3d3ad2d33c1a6739U, 0xbda865f93d30c3abU, 0xbc8c73263d8c644dU, 0xbd097a9fbd585467U,
  0x3d0f82083ce9c895U, 0xbdb500613d8f4bdcU, 0xbdbd94c43d7790cbU, 0x3b0ae8eebd327685U,
  0xbd2dae9d3d278002U, 0xbd425b1e3d21ef95U, 0xbd44ce38bd96a0bbU, 0xbd78db713db4a452U,
  0xbd8332c6bdc8523fU, 0xbd49da20bd104a78U, 0xbdb08d69bcc828c5U, 0x3ccdbf603d174f48U,
  0xbd5401e83da135f2U, 0x3ce0f90abda1754cU, 0x3d51c45ebd4f9eb5U, 0x3d0f83f23d8bf6f9U,
  0xbd04de25bd91648eU, 0xbca2f35cbd26ced3U, 0x3d679e623cefbfa7U, 0x3d8dafe73bd7b47bU,
  0xbc8468933daa28c5U, 0x3d63a5923d192b7fU, 0x3bf6197bbd3c70c9U, 0xbd553dddbd87e3ccU,
  0x3d028136bda9b27eU, 0xbdc6d81d3d7d751aU, 0xbd8ccf9f3d2f56beU, 0x3d3939f53d43978cU,
  0xbd9dcbd73d3f285eU, 0x3d647d27bd019784U, 0xbd31392fbd88fbbdU, 0x3d5d33ab3d76a514U,
  0xbd911f96bd9cdb01U, 0xbcd83d6dbd8bcdffU, 0x3d4d90f83d838c7bU, 0xbdaa874b3d3946ebU,
  0xbd304a5fbd90f07bU, 0xbdbf240d3d10c3ebU, 0x3dacc9dbbd00888aU, 0x3d9384fb3d8680efU,
  0x3d21a5163d082652U, 0x3d1e444fbd8684f0U, 0x3d9ebfb4bd32c876U, 0xbd2bdfef3dad00fdU,
  0xbdc5b9743da211b3U, 0x3d81f3f63cf96beeU, 0x3ce43a433d8a5efaU, 0xbdad41f0bda74fe9U,
  0xbce907dc3c64e8a0U, 0xbd886a363d08abf2U, 0xbc9e946c3d89748bU, 0x3c306498bbadcfb0U,
  0xbd8569283dae35a1U, 0xbd297725bd1c3626U, 0x3d7f76923d66e006U, 0xbdbe619a3d794992U,
  0x3c04cb28bce62da0U, 0x3d8fc30d3da54697U, 0xbda6ee6dbd74ad45U, 0xbd6b7040bd394d97U,
  0xbd469640bd5fef23U, 0x3d9cf715bca0bbd0U, 0x3d108c66bd925418U, 0x3d12917abd037641U,
  0x3d8a91f33d6cc43eU, 0xbc0bbc103c934c64U, 0xbcea2068bd0f5bd4U, 0x3db564a1bc318410U,
  0xbd6c6a47bd1081dfU, 0xbd89e2fabd1903a8U, 0xbc523a003cf177bcU, 0x3d07c4d6bab712c0U,
  0x3d8a4eb13d4e1fe6U, 0x3c85b3443d8a22f3U, 0xbd6d87683ccfb440U, 0xbd90804ebc888088U,
  0x3cbefa30bca507d8U, 0xbc93dccc3ca5076cU, 0x3d1850ee3d3f2a56U, 0xbd25c65d3d04150aU,
  0xbcadd4fc3dba33ddU, 0x3b032260bc85908cU, 0xbc798d50bcd75e48U, 0x3d6b4d0a3b0f49c0U,
  0xbd60178a3d9ee68fU, 0x3d52ab86bdbcf89dU, 0xbda103f1ba447c80U, 0x3cb52214bdaf329bU,
  0xbd99b0e8bd1c1a4aU, 0x3da8592dbd87e26eU, 0xbc650c983d8b34fbU, 0x3d53f94e3d8af577U,
  0x3d0ceb323d44501aU, 0xbda436ba3c091268U, 0x3db311753c8c1fdcU, 0xbd8266653d487d9aU,
  0xbcbe29883c8d5cd4U, 0x3d80bd21bdb4b78fU, 0xbd5d30993cea3628U, 0xbc9f142c3d832111U,
  0xbd7e6a84bcdefa04U, 0x3c792ab83d8cc59bU, 0x3dba9d893dbe26f9U, 0x3d700cba3d6ebf2aU,
  0x3b9ee2a0bd67f009U, 0xbd3dbe9cbd423e7eU, 0x3dc0461d3d45825aU, 0xbcd7b388bc7ba738U,
  0xbd6ffb3ebd666ea8U, 0x3d4415c23d956f19U, 0xbd7bc5443c6fa378U, 0x3a58c400bd976fd5U,
  0xbd8eda463cff737cU, 0xbdbb10203c75a350U, 0xbcc4a08cbda5551eU, 0x3d93b9a33d6d9f3aU,
  0x3dac2d573bc84970U, 0x3cc04f98bd77f7d9U, 0x3db6d7173bb376d0U, 0xbd8195abbdb37beeU,
  0x3c2db6483ae8db80U, 0xbd11721d3d9aa991U, 0x3b8ed7303cddc594U, 0x3c7e1000bd6433caU,
  0xbc183f60bdbe64ffU, 0xbc7165e83d0bcc72U, 0x3d84d21d3be57880U, 0x3db3c3afbcb3abccU,
  0x3dbb346b3d836405U, 0x3d5624c6bd4ddd72U, 0xbd1b151bbd774336U, 0x3cdbca703c4d55e0U,
  0x3da818d5bd17bd7cU, 0x3c2da1703d0eecb6U, 0x3d69467abd196e33U, 0x3d9e94cdbd9d8795U,
  0xbcdf60b83da204edU, 0xbd627967bd7f7a14U, 0xbd9d24db3d2a455eU, 0x3db394a1bb90a580U,
  0x3d3514863d555612U, 0x3be457d0bd967c59U, 0xbb54a0803ccb1934U, 0xbd2f8deabda4dcfaU,
  0xbd54bb7c3d702f9aU, 0xbda0f16a3d8f1b45U, 0x3d60f7a63d9e0e23U, 0x3d94cf65bd395236U,
  0xbda030f63d033076U, 0x3d8176e93d1e7a1eU, 0xbd7f0cba3d851adfU, 0xbcf87dbc3d82f967U,
  0xbd661f2bbc39ad60U, 0x3d80de733c846740U, 0x3da39e8dbb63c520U, 0x3a3ded80bccd67fcU,
  0xbd21a0843c5f3628U, 0x3d9612d1bd294133U, 0x3d00ff06bdbc7bf1U, 0xbcbe331c3aea4480U,
  0xbba2f1703c4caf40U, 0x3bc391c0bc274d20U, 0xbd32a9dcbd3f2d24U, 0x3ce4eb3c3d8cddfbU,
  0x3d44f6163ccc2c54U, 0x3d8182b3bd6525a8U, 0xbc90d810bda124ccU, 0x3db7e519bd907e7aU,
  0x3cfc5684bca7d2e0U, 0xbd236b9a3a919900U, 0x3a3b1d80bd80be07U, 0x3d5345b6bd645e09U,
  0x3dbe48f3bd85cecfU, 0xbd222538bcbdb1fcU, 0x3bba8300bda9e5fcU, 0x3d3ce39e3d76c406U,
  0x3d816e35bd6cd97fU, 0xb93bda00bcc13a58U, 0x3c0a93703d933803U, 0x3c6f3e38bd8ee35aU,
  0xbd8750c0bc7fd3d8U, 0xbda8fb1fbd69c165U, 0xbc66a5083d2c8446U, 0xbdab2288bcfa2734U,
  0xbbb5f0803cb3ad10U, 0xbc0e1a00bdbcd691U, 0xbd1cdadc3d00b95aU, 0xbd2345c53d1341c6U,
  0x3d3c16e2bd322bdaU, 0x3d0423f63cdd82d4U, 0xbd75679d3d103e2eU, 0xbd1d5bac3be06b90U,
  0xbba433f0bd1d889cU, 0x3d5e86d6bb3baee0U, 0xbda332d43d58d5caU, 0xbcd81870bbe15aa0U,
  0x3db8b4a33c3d5238U, 0x3d9246393ca8cac0U, 0xbd87852d3db7a573U, 0xbd5ac8b9bc2d4bf0U,
  0xbce5a6b43d5e8a6aU, 0xbd125de5bd53f74eU, 0xbd8e5e9d381a7000U, 0x3d0b00debd921b76U,
  0xbd100bddbc3448d8U, 0x3c5c51b03c91d5c4U, 0x3cd677203b4a8800U, 0xbdc0bbc3bd2dc8d2U,
  0x3d27eeb6bda77bd8U, 0xbd8d873fbc7cb1c0U, 0xbd1f46c5bd55e01dU, 0xbd54812dbdb893beU,
  0xbd8610023cfd20acU, 0x3c88b390bd9118d0U, 0x3ccce808bcbd8b38U, 0x39eff2003d5e36baU,
  0xbca5e53cbca16becU, 0x3d1e745e3d7a6b36U, 0xbced3ce03da496b7U, 0xbd9dc4063d8b5459U,
  0xbc3056883db4d535U, 0x3cbdfc34bd858dacU, 0xbdb88100bd8aabacU, 0xbd45ea283b9bc1a0U,
  0x3d89f3773d175c72U, 0x3b90b460bd957fedU, 0x3d9ad1f9bd486d95U, 0xbd825f78bd33260cU,
  0x3cceef4c3d0506f2U, 0xbd52d26abd8a3c2dU, 0x3d533f6abd254e7eU, 0x3d6d61ca3d3e48aaU,
  0xbcb59e1cbd6a3f55U, 0x3d28e17a3d9033abU, 0xbdb24e44bd251c76U, 0xbd4958ccbcda4c84U,
  0x3d2f94eabd9c607dU, 0xbd75c5f1bda4e739U, 0xbd905923bd4bddecU, 0xbdbe174dbdae5887U,
  0x3d05ccbe3c80615cU, 0x3d180256bc3e7458U, 0x3d59c2eebd02b9e8U, 0xbcce93e0bc8ed2e0U,
  0x3c9113203daf7f63U, 0x3c1cee503dbaf277U, 0x3ceae354bd6fc192U, 0xbdbafaef3b2d18c0U,
  0xbdb0fd003d6b8696U, 0xbd91eeee3b719020U, 0xbda0d4d6bdba7a61U, 0x3da0b2d93ceaa724U,
  0xbcc25c6cbd11d9c2U, 0x3c62cbe83db8ac15U, 0x3d9d4645bdac6990U, 0xbd81e8e5bcc9bbe8U,
  0xbda0152cbda95839U, 0xbc2eaf78bd69142bU, 0xbd998f1b3c205fd0U, 0x3db91ea3bdac8584U,
  0xbbb7b1c0bdb5732aU, 0x3d046b3ebd4c96bbU, 0x3dacb19dbda6de84U, 0x3d6cb3863d08b5f2U,
  0xbd53967abc8c626cU, 0xbd291cdabc5cd580U, 0xbda0339abdaa0753U, 0x3d9a8013bd953314U,
  0x3d63cd22bd4674e0U, 0x3d50ab26bd079830U, 0xbdba4fcb3b12eae0U, 0x3a13a580bd658c7aU,
  0xbc7b02c03d18b4c2U, 0xbd954b92bcabf050U, 0x3d231a6abd1e15feU, 0xbcd5fe34bda84b5eU,
  0xbcc3fa40bc5f81c0U, 0x3bc10110bd16a7edU, 0xbd6af7cfbcc49a38U, 0x3c58c030bd984ed5U,
  0xbd7e3c24bd3dec9bU, 0x3da695b33cc64998U, 0xbca63540bcfc05ccU, 0xbda8845bbc39fb20U,
  0xbd88870f3d4c3416U, 0x3d693d2ebd180c0eU, 0xbcee32003bc6ca90U, 0x3db1f2ffbd298f22U,
  0xbcc023ecbda380c9U, 0x3bf83910bc9a5424U, 0xbd60d3bf3c2c6058U, 0x3dac196dbdad4f3cU,
  0xbdbc0c99bc2c79d0U, 0xbcd4262c3da2d819U, 0x3d343a363d92b8b5U, 0x3daea6913c925facU,
  0xbdb3eb26bd9876d9U, 0x3d3273723d67f3caU, 0xbd9dc6173d9a2827U, 0x3c20eef0bc947318U,
  0xbc9c7fdcbd34cbe4U, 0x3bc09ec0ba10b780U, 0xbd538ac7bd95bebaU, 0xbd58a4f8bcf5c298U,
  0x3dbf14a5bc80b404U, 0x3c5c3f983cb1b56cU, 0x3cc20f34bcc31040U, 0x3d727fba3d4d2b62U,
  0x3d5813923d5ac5b6U, 0xbd788822bd2a8856U, 0x3d53cd3a3d327382U, 0x3d88b84f3db8cc9fU,
  0xbd0354b6bca7137cU, 0x3ca7f828bcd63d24U, 0xbcb74c883c6c3fa0U, 0xbcd4a86c3cf856acU,
  0xbd6f80babd77b8b4U, 0x3cc337683ad08940U, 0x3dbe1dbdbc9ec154U, 0x3c7687783d692c96U,
  0x3d851081bcf0f654U, 0xbd97765e3daed8d5U, 0x3dbdf927bd9847beU, 0xbcbbcaacbc8fcc4cU,
  0xbd737cf73cc11688U, 0xbd1d6a893db8497dU, 0x3dbafd933c1af708U, 0x3d799d9a3c77c6d8U,
  0xbd7d1039bd81f7daU, 0x3d8093353d9b089bU, 0xbce8d488bd68ef23U, 0x3da6afabbda6c052U,
  0x3d805159bc009880U, 0xbdb456fa3d37cc92U, 0xbaa30c003d08f376U, 0xbdb09750bd88dd34U,
  0x3dbf6e59bd473426U, 0x3da1ae533c6570e0U, 0x3cf06e84bb3c2200U, 0xbc0fba903d8d15afU,
  0x3d4d67323d755202U, 0x3db61f31bd8eb9bcU, 0xbd874220bd6aec59U, 0xbd48ca053a69f900U,
  0x3ca4dcac3c6ae5a8U, 0xbbd0cf003c432d48U, 0xbdbde25fbc922cacU, 0xbdb2f1b23da9435fU,
  0xbb762b80bb929680U, 0x3da173d73cd4bd78U, 0xbd475f4a3ca1b43cU, 0xbda1dd5cbd01010eU,
  0x3c331618bcfd1564U, 0xbbc52290bdb5ac4bU, 0x3c073588bd6e6c5fU, 0xbdbdef64bda81c65U,
  0xbdb244aebdaa6b7dU, 0xbc6739103c592f40U, 0x3d5b5a2abcebb2e8U, 0x3d5a8c823dbc816bU,
  0xbd12ca393d0c11b7U, 0xbd7b76cbbd626dc9U, 0x3d87e79b3d6d19d7U, 0xbc9d96853bf0d536U,
  0x3dab063ebd122e8dU, 0x3ca25d573cc49442U, 0xbdc6f580bcc72a8aU, 0xbdbf0330bac23b7eU,
  0x3cceb4843ca3d758U, 0xbd895ed2bdbb2639U, 0xbda85f8ebcac7753U, 0xbd8c93ea3d028842U,
  0x3d198c613cb729b6U, 0xbd288f5bbd01aec7U, 0xbd2676593d07465fU, 0xbd854cc73d3d857eU,
  0x3d320695bb9f45d6U, 0x3db32daf3c8989c8U, 0x3d8da5963d8aec01U, 0x3c0962873d8e34bdU,
  0xbdadf262bdacfc09U, 0xbd4964c4bc9da0a3U, 0x3d406268bc4f88d8U, 0x3d90bf383d2869c8U,
  0x3d30b099bd425fe5U, 0xbd9ff9d63dae8aa9U, 0xbc09dfa3bc1f7551U, 0x3cd3c6543bdc2a86U,
  0x3d57333a3d4f78f6U, 0xbda2c80e3da1e4b1U, 0x3bea8406bcc81183U, 0xbd5d9945bdbd2e44U,
  0x3d20da703da76fc2U, 0xbcf5471bbd08e9c2U, 0xbd6afdc5bd3c8b8bU, 0x3d914ebf3d2a933dU,
  0xbd9dc97a3d790a4cU, 0x3d31cf763d69948cU, 0x3d3083e3bd9aeeb3U, 0x3d77a9c83d906285U,
  0x3d4a476abdc2518dU, 0xbc7d8fccbcd47697U, 0x3d201e26bdae8034U, 0xbdb56a8bbcb1169dU,
  0x3d45e36bbcca0b4fU, 0xbda3f1e4bca16f3dU, 0xbd5821b93c8b6d0eU, 0x3d9aebe0bcd45516U,
  0x3d6e91e43a14d2c0U, 0xbca54495bd21c134U, 0x3d8c2dd6bd833163U, 0x3d3af6b83d876e58U,
  0x3d00129f3d9eb211U, 0xbd1ff9debcc477f7U, 0x3ca3dfce3d94e1c3U, 0xbdc6176dbc27f816U,
  0xbc97f8a2bd342e93U, 0x3d096454bd82924aU, 0xbdb85b903ce54703U, 0x3d6bdfdf3c711132U,
  0xbd0b4807bd1a2fb3U, 0x3d10c5aebd14140cU, 0xbd877edcbb2517e8U, 0x3c4917343cd47e90U,
  0x3c0bc85c3d5398e5U, 0xbdb479a7bb5aa9c9U, 0xbd888fba3cb70e50U, 0xbccf77f13d643b2cU,
  0x3d5e68873c4fbb63U, 0x3aad41423bf52329U, 0x3d1d6acb3c8689baU, 0xbdc1c8a5bd37953eU,
  0x3d0b4c253d225be4U, 0xbdb95d1f3d9248d9U, 0xbd9683e53d9106a6U, 0x3d9586eebdaab021U,
  0xbc438460bd2ef6a1U, 0xbd805c9b3d03a4f1U, 0xbb1714c43d8bc9d1U, 0x3da743fbb9309030U,
  0x3c8d17c8bcdb6ff7U, 0x3ca254ef3d8ee910U, 0x3d0edd103b905111U, 0xbd866910bd8c3411U,
  0x3be802663d47d493U, 0x3cb8e0603d8ced0cU, 0xbce97f083d347fc5U, 0xbd90f2a63ab53596U,
  0xbd4eb3533d6e4c19U, 0xbc836e613d77c32aU, 0xbbae7a323d323161U, 0x3db67ce2bd9ddb6fU,
  0xbd30e180bd0d6080U, 0x391f2620bd19f6c5U, 0x3d8e3633bda5265dU, 0xbd4147c5bd419758U,
  0x3d61fbe7bd1b550eU, 0xbdb44982bd6e5f4eU, 0xbdbee32a3db362d9U, 0xbd89bdb53da02e6eU,
  0x3cbb2f1dbdb06c5eU, 0x3c49d4c03c744934U, 0x3d1f9e6a3d2bfca1U, 0x3bca51a03d090d6eU,
  0x3dada992bd86a10aU, 0xbc9b10123d5f2b37U, 0xbdc08096bd62bea9U, 0x3da5b925bd2ac299U,
  0xbda415b4bdb15a78U, 0x3d849d693d4e341aU, 0xbcd5614cbc2f1a0bU, 0x3b9a868e3d3eb847U,
  0xbd1218e6bd3c73cdU, 0x3d1b9e4c3d9a7dadU, 0x3d188da4bc003668U, 0xbd90ecc0bc426bbcU,
  0x3a1090b0bd2b2e5bU, 0x3bd641623ca97c44U, 0xbd0451efbd5f96b8U, 0x3d8915823d9bd451U,
  0x3d9f21673d9ff225U, 0x3d49c27ebdb5ac9eU, 0xbd1da806bd8d6ea4U, 0xbd56d1ad3d98d93cU,
  0x3da393f7bd6f9684U, 0xbd8855983d61a5bbU, 0xbda41b943b72adf6U, 0xbc601adf3d9135c7U,
  0xbc36053a3d997adbU, 0xbbf89636bd659601U, 0x3d6c86e2bdace85aU, 0x3d02edcebcbbe75bU,
  0xbd2392b6bcf8f7e6U, 0x3a803988bd16d32cU, 0xbc9959bebdab63aaU, 0xbc28e394bd3d6274U,
  0x3ce948fdbcf6eb20U, 0x3d896d333ce7f411U, 0xbdc12ecf3da20454U, 0x3d43c62e3d9551adU,
  0x3d10b290bd47f0bbU, 0x3c9750e73cf32266U, 0x3d1864063d5b2fc0U, 0xbcb1f47bbce474f1U,
  0xbcc5e1b93a13f290U, 0x3d55e328bd4cdeb1U, 0x3c9cad89bd01b90aU, 0x3cdf575b3c16522fU,
  0x3db35e513caa7967U, 0x3db652f4bd8d98a0U, 0x3d51afc6bdac83f5U, 0x3d9cf6bfbd4898a5U,
  0xbdc179603d7fa414U, 0xbd6ea484bd78b820U, 0xbd916d89ba3b8788U, 0x3d0c0eac3b1434aeU,
  0x3cd66a1a3cea004cU, 0xbd3fb1203d15fbd1U, 0xbda650d03d533876U, 0x3c53d7ccbbd1c3fcU,
  0xbd995a9f3cf32c15U, 0x3d8b91343da63e5bU, 0xbd153f1c3da06775U, 0x3bd62a7b3d596444U,
  0xbca10ee5bdaea815U, 0xbd765918bbe998ceU, 0xbb8773bc3d6ad583U, 0x3d3abd8cbda107e3U,
  0x3ce3edab3c87793eU, 0x3ceb0da43d1fd456U, 0xbd3b6506bd9928edU, 0xbb9e86d4bda742f7U,
  0x3d1dcccbbd21ce54U, 0x3d8eea3bbd12a288U, 0xbdc6cb283c6e287fU, 0xbdbaddd3bcc4af06U,
  0x3d924631bd09bb4cU, 0xbd9f1799bd18e13eU, 0xbc19e4a93d51cfd4U, 0x3d5d28df3d81469fU,
  0xb9a192a83d16f275U, 0x3c98ba64bcc221baU, 0x3d97af5fbdb73c38U, 0x3bd65a10bd1521abU,
  0xbc8ef504bbe0f84cU, 0xbcbd13b4bdc315f1U, 0x3d9c03dd3aea9808U, 0xbcf3dfb5bd1af869U,
  0x3ace9620bd67f06aU, 0x3cb5357abd7457edU, 0x3dae83393d9d846eU, 0x3da1983fbd8d3b7aU,
  0xbcc846e5bd268d30U, 0x3c3d245abd879cf6U, 0xbd85a33c3ce345a5U, 0x3da6cfbebd97dd87U,
  0x3c9af3a2bdae7b35U, 0x3d77604ebc23d6f8U, 0xbd66c660bd190007U, 0x3daa6cd43d6f0ff2U,
  0xbd66e5e6baeb49beU, 0x3cadb1113cc5a595U, 0xbd84dd5c3d49024fU, 0xbd87573ebdb1e326U,
  0xbd5bd82dbc8ec1bcU, 0xbcf657aa3d8037caU, 0xbd54f4ce3d1b3221U, 0xbd49a78ebb60205dU,
  0x3d06c9fa39d0b628U, 0xbdae7dfa3a30faa0U, 0xbd8835cdbd758e6fU, 0x3d4c04553da4b898U,
  0xbbf70cffbca4d9caU, 0xbca5fb18bdbb4414U, 0xbcc54f783d8e8073U, 0xbc22dd10bdb1b1f8U,
  0xbd902698bd89ac4cU, 0x3d8156513da33b72U, 0xbcb5711a3c492a04U, 0x3caa88c0bcb17b35U,
  0x3d9e4f75bdc722b5U, 0x3d1835b93db4ae94U, 0x3c79a185bcde2234U, 0x3d421295bdaa7f00U,
  0xbd24599c3d2f1f3bU, 0xbd3c80a3bda14a83U, 0xbcce0b973c5b7a53U, 0xbdaa6117bb8f9f0bU,
  0xbcbbf53bbc4daf2aU, 0x3d9ca5db3d24845cU, 0x3c2504173c473b8eU, 0xbd6ddf643daa03a6U,
  0xbca153633db5ab98U, 0xbd9513d6bc8a2560U, 0x3d65e0893d989faeU, 0x3cf0498fbd1e8287U,
  0x3d6507263d5a3441U, 0xbc5dc79cbd709b0dU, 0x3d88dce3bd53a39fU, 0x3d4475983d19ceaaU,
  0xbd71043dbda47a33U, 0xbd82ca7f3c4c8f49U, 0x3d2685893d8f8317U, 0x390fcaa03db1ac12U,
  0xbc83df65bb32ec76U, 0xbdab29c8bd4fbe27U, 0x3d8592de3c549402U, 0x3c6316f4bca69b7aU,
  0xbb10a1c8bd6690b8U, 0xbd8e962dbda68b07U, 0x3d5d84763d891518U, 0x3db0d3b3bd98d8a1U,
  0xbd83fc5dbdb1e3e1U, 0xbd7d7e81bc4e765eU, 0xba9da2ea3d699079U, 0x3d951c9ebd3fc4d0U,
  0xbca6fb1ebda13897U, 0xbd9464e73ca97a66U, 0x3ca690d5bd2b8189U, 0x3d757c27bcec4c50U,
  0xbd6b181fbc971877U, 0xbdc6db2e3b1b9715U, 0xbccf0ac83c4e1b83U, 0x3d67ca25bdb297f1U,
  0x3d9cc93f3b870e03U, 0xbcd4d261bd93bee7U, 0x3d002e6c3cc58134U, 0xbd9760523ccfe739U,
  0xbcebe81dbdbb390dU, 0x3d7316d7bda002c5U, 0x3c930b1e3d12f616U, 0xbd02b0d93d93272fU,
  0x3c3e56293dace3e1U, 0xbc2124183d422947U, 0x3dabec203d979f42U, 0xbdb0e5413d9e468aU,
  0x3c3c2322bd3c8c5bU, 0xbd8e45f33d08e3eeU, 0xbd1d9c87ba8039e2U, 0xbd732fe13c923340U,
  0x3cce8763bcadd66aU, 0xbdbbb0e8bbaa6f77U, 0x3daf190ebdbd5294U, 0x3d9a62d13d967f53U,
  0x3d5d511cbdb1de32U, 0xbd27e0e33d150c3eU, 0x3bb597f4bd9cf788U, 0x3d9a5d7abd2ecd9aU,
  0x3d25aad33cfabac9U, 0x3db489c4bd076a4dU, 0xbc4a93543c9bd9c4U, 0x3d10e330bc44b97fU,
  0xbd1090db3cc86175U, 0xbd95e87f3c555d9bU, 0x3d7ed7423d45df97U, 0x3d1e7ef7bdb14640U,
  0xbc744f873c294909U, 0xbd6e1b7cbd8e9727U, 0x3c2fc47e3dbab402U, 0xbd304feab9d48a90U,
  0xbdc2ad103bf0c530U, 0xbbd7de4a3bfcd06aU, 0xbc82f3f5bc97a0b2U, 0xbdb3ff84bd1b2ae4U,
  0xbdb1a87cbd0060e5U, 0xbdc1b5f9bb3d52fcU, 0x3c6fd77bbdbb40cbU, 0xbd854202bcc4efd9U,
  0x3d7288f63dafe3b5U, 0xbd7d0d29bc3012fdU, 0xbd48de7e3d3fc269U, 0xbd6543083ce0a5dbU,
  0xbc214ea0bd62141eU, 0xbd4b254dbd518df8U, 0xbd16a24abcd46730U, 0xbd853eb3bd05e413U,
  0x3cc5226c3db8b805U, 0xbcbea7b03b82f6a0U, 0x3c2736803cdb92a4U, 0xbb9369b03d084942U,
  0x3da1c0bfbd60b173U, 0xbd9c996b3cda5928U, 0x3d868e7fbd9a88a4U, 0x3cdcee80bd75e7e2U,
  0xbcea2cb83d73b06aU, 0x3d41f23a3d0d1beaU, 0x3d12da5ebd857814U, 0x3bf9be30bd2cca73U,
  0xbc6258a03d42541aU, 0xbd31f8e1bc8ee1b0U, 0x3db64805bd36ea56U, 0xbc0a1c48bd90f23cU,
  0x3cbffa5cbd81cde9U, 0x3d258ca6bd9c6e5cU, 0xbd049033bd05b43dU, 0xbd84fe3c3ccd827cU,
  0xbd2a8ad73d2529aaU, 0xbc8f3850bc7492a0U, 0x3d0c8d22bda9bcfdU, 0x3cac83d4bd524b4eU,
  0xbd9961bfbd328766U, 0x3d9979ddbd55c380U, 0x3d017e463d3e6e0eU, 0x3d0ed742bd7edde8U,
  0xbcc18ae03bbeb390U, 0xbd81adb43ce8b9bcU, 0xbd7cdbb83d2e0566U, 0xbb5ac7c03c0ed488U,
  0x3d8897173db5cd4bU, 0x3d9ce68dbccab9d0U, 0xbdc06aa7bdae1ae4U, 0x3c8858843cb9b70cU,
  0x3d3f8d26bd185d32U, 0xbce48afcbdb6e218U, 0x3d02fbf2bd9e9963U, 0x3d2a60023d40b002U,
  0x3d29bfa23bf718c0U, 0xbdafc45e3cba99a0U, 0x3dbfc8993c3e80b8U, 0xbd1ab8b0bd71fe11U,
  0x3d7edb2a3d27b93aU, 0x3cf439d03ba82340U, 0x3d2ce7523d15e916U, 0xbd9af5ce3d048b02U,
  0x3d640296bdb1aaddU, 0x3c5ebdc83d6d5242U, 0x3d76d59abd5b4843U, 0xbc44d290bd358dfeU,
  0x3d223402bd76b5ecU, 0x3d6d8c9abd522ac7U, 0x3da36a053da5bbe9U, 0xbd9bb8cabdbd6b98U,
  0x3ac53a803b92d8c0U, 0xbce2f6e43d616ed2U, 0xbd5b29393d957b47U, 0xbda6f00d3caa508cU,
  0x3c9bd358bd0a7e90U, 0x3d25ad46bdbaa08eU, 0xbd01ac52bd0b3f28U, 0x3dabf3693da301efU,
  0x3d36efc23c109848U, 0x3d86e003bdbdc131U, 0xbc607fe83d739f6eU, 0xbc8fbab43ccbbb1cU,
  0xbd87dee73d895bd9U, 0x3cbcea58bd6f2aa2U, 0xbc3d44703d903613U, 0x3d49c7963d8dafcfU,
  0x3d2c92b63d2ee5aaU, 0xbd456bb43db9a711U, 0x3cc318f0bd7ade09U, 0x3dbb64a9bb9517c0U,
  0x3d567fcebdbe2b75U, 0x3cf0e9e03db520d7U, 0x3da51551bd7d52d6U, 0x3d75bbde3c8c1774U,
  0xbd8e715b3db83b97U, 0xbcd5de08bd7e7984U, 0xbd9914a0bd18bd2dU, 0x3bb1b3d0bbd4f840U,
  0xbba514203d7af326U, 0xbd95181e3cef355cU, 0x3ce94150bda27684U, 0x3c2998003c410f98U,
  0xbd71e3f4bd82272bU, 0x3d1a5cb2bce18b44U, 0xbd32be19bdacfa0aU, 0x3c9b67f8bd9bf95dU,
  0x3d8094b93d967399U, 0x3d5c8786bd1a4ab3U, 0xbd3116763c85fcd0U, 0xbd40bbbabdbd9582U,
  0x3cf5ca3c3c25cb58U, 0xbbbc99603d826573U, 0x3d3b65623dbcb84bU, 0x3db812bdbd7b38d9U,
  0xbdb7a7ec3d5ef43aU, 0xbdb364be3ccd2af0U, 0x3d1cd642bcd72c84U, 0x3d7d169e3d9c4569U,
  0x3c815694bd156e48U, 0xbd8ca873bcde649cU, 0xbc9ee488bc7a7250U, 0x3ca3bb103dbdad3fU,
  0x3c639450bcecd4ccU, 0x3c86e79cbc5ea0b8U, 0x3d90c77dbc928ad4U, 0xbd8623223d809b87U,
  0x3dbabaa13c7df2f0U, 0x3d86e083bd123767U, 0x3db5183bbdafdcbfU, 0x3daadfdfbd8ff61eU,
  0xbd85167cbc0c56b8U, 0xbd6c35833da9281bU, 0xbda2e365bc6760c8U, 0x3d53a53e3a804900U,
  0x3d4ee9da3c8d1408U, 0x3dab6fa1bc977a60U, 0x3d82cf6fbd42614fU, 0xbc514c38bd903b2bU,
  0x3d7e515abbaa0f60U, 0xbc298810bd959a5bU, 0xbd8d7e6abb432060U, 0xbc443120bd83212cU,
  0x3c815968bd19659dU, 0x3c0295e83d7568d2U, 0x3d8cc0c53d1d5d52U, 0xbcb8a488bdbf1b5bU,
  0xbc508fd0bce2f0b4U, 0x3d23a5d6bd9d671aU, 0x3db0feadbd2a58b7U, 0xbc4488f83daa3283U,
  0xbd20f2703d921561U, 0x3ce26b703d402a66U, 0x3d667aa2bd10fa74U, 0x3da3de973db24ed5U,
  0xbc0cc5483d7bc9a6U, 0xbc32a4983d10271aU, 0xbdb8a3253d43c496U, 0x3b9e0c40bb5ce380U,
  0xbd0a0f283d85a86fU, 0xbd8271fa3d0f0f8aU, 0xbda6fa4a3d543a82U, 0xbda4ce7b3d909757U,
  0xbc96d1883d77f212U, 0xbd9506793da9b031U, 0xbd940b4f3d656e6eU, 0xbcc66e4cbd3b7d05U,
  0xbd0c233abd8bc647U, 0xbd5ca6b5bd861d40U, 0x3d363a2abdb1573cU, 0xbd9e04ccbcc85434U,
  0x3dbf8a893d1cedeaU, 0x3dad5b53bc70f5e8U, 0x3d0e424e3cbaa7ecU, 0xbdb0f8e8bd856cb5U,
  0x3d58e57abd231631U, 0xbc014740bab0c440U, 0xbd295741b9705600U, 0xbd6796183d3c7492U,
  0xbd3623dfbd6392dfU, 0xbd7453123d687372U, 0xbcdd23ac3d284b02U, 0x3c2bf680bd484783U,
  0xbc9e3c04bdbd489aU, 0xbdab2935bdc13838U, 0x3d7bf59abcfb2c60U, 0xbdc138c63d5e09a6U,
  0x3c180e20bc5c0848U, 0xbd2f8bbf3c85ac48U, 0x3d90420b3c9cff6cU, 0x3ad666803d921819U,
  0x3c84fa7c3d960f4dU, 0xbd6f97e43c7f2308U, 0x3cbac7c4bd8dc07cU, 0xbccc56bcbd0b9961U,
  0x3d2fe4523da5eecbU, 0xbc93aec03ad56600U, 0xbdc0867dbcf877c8U, 0xbd2ee732bb9cd400U,
  0xbd0f09b2bd6299bdU, 0x3b444e40bcd3976cU, 0x3d84a4453c537bd0U, 0xbdb34f2f3db884f9U,
  0xbd0af09cbdacf726U, 0x3d3d53063db70d0bU, 0xbd97927c3da525c7U, 0x3d4b7e3ebd51c962U,
  0x3cd7f7ccbc305e78U, 0xbcecf474bcb4e300U, 0xbda26ca2bc58b9c8U, 0x3da22b0f3d0e4af2U,
  0xbd92cbce3d9d90b9U, 0x3cc83a10bceafd18U, 0xbdb62e703cbb3a14U, 0x3d64c63a3d131656U,
  0x3d6cba82bcb5d474U, 0xbdaa6f223c477e20U, 0x3cff1e143b1df0c0U, 0xbc8078643d8b610dU,
  0xbd60173cbd5592c5U, 0xbc15e2683d516bdaU, 0xbd70b78bbd8acf3cU, 0x3bbcd590bd1cb427U,
  0xbda76631bdb173d2U, 0xbd5a543f3ba28760U, 0xbdb6d6d4bd816b29U, 0xbda63fcb3b5b6940U,
  0xbcaede40bcc0c64cU, 0xbd75d78f3d9dc16fU, 0xbd7625543d2a929aU, 0xbca36e98bd48b3c7U,
  0x3c94b9c4bdb867baU, 0x3d15bee6bd9cc791U, 0xbc93eb3cbc665b58U, 0xbda3b7c43d66f602U,
  0xbda3afd4bd6ff7ccU, 0xbd9b92ef3d92b321U, 0xbd3a6bd93d97c431U, 0xbd9bf06f3d009602U,
  0xbc2d8990bd3a6654U, 0xbd576dfdbd89fb4cU, 0x3cf866183da088e9U, 0x3d0c4f323ce2dad0U,
  0x3d460c123bd78520U, 0x3d5a0b0abbbb06e0U, 0x3d20bc9e3d97733bU, 0xbc8b9d503d85aef7U,
  0x3d0728323c94bbccU, 0x3cdd39d8bdae29d9U, 0xbd0353223d18c1ceU, 0xbdb02196bc522b60U,
  0xbd859d503c8a6d20U, 0xbd337d77bdbfcbb8U, 0x3d5ee3263d4e488aU, 0x3c820ad83d8d0bbdU,
  0x3b4bb6003d8b7f77U, 0x3cd73f0cbd84d7b7U, 0xbcd0e47cbdb7105fU, 0xbcdb7c083b2d9080U,
  0xbd3e15a03d4df3b2U, 0xbdaa11723d1f2a46U, 0xbd8296f63c8f0cacU, 0xbdb253eb3cf9111cU,
  0x3d1f967ebb2d50a0U, 0xbd9b302f3d2b71feU, 0x3d20634ebdab651eU, 0xbd74f3fc3d39c576U,
  0xbd0b7e173bbea900U, 0xbc17cfa8bd8af6b8U, 0xbd59f2e13d8be967U, 0xbd3bee923db49b37U,
  0xbd1399193cea10b4U, 0x3bd2e0b0bb50d440U, 0x3c51d708bd6dd0c4U, 0x3d9b1009bc76dbe8U,
  0x3da0eae1bdbdac73U, 0x3c93ca343d1c9c42U, 0xbb8023203db7820dU, 0x3b6bada03d8b8e47U,
  0x3d8cb045bcfe2d30U, 0xbd7fe9bebd796bc1U, 0x3dac9767bceb5128U, 0x3a452100bd9f0cf5U,
  0xbd1ac7d53b303a60U, 0xbb62cec0bb9da3f0U, 0xbd8b89303c8eaa5cU, 0x3d0f25863cfb8904U,
  0x3d479d8abcb99becU, 0x3befd7903cc9b498U, 0xbc298798bd479f85U, 0xbd4f5cc53d19c63aU,
  0x3cf8f7f8bcfdf6c0U, 0xbd7c49af3d558acaU, 0x3dabfccf38b45c00U, 0xbdae5e603c894ab8U,
  0xbdaba248bcad6ba4U, 0xbc0738f03d8fc8f5U, 0xbc97930cbcf7fb4cU, 0xbd9a86303d5d4d72U,
  0xbdb3b9a03d8c6aebU, 0x3d7968fabd7face9U, 0xbc7305883d9f23cdU, 0x3ca7a5083dabb131U,
  0x3da6a07dbd4f5b85U, 0x3db61b633d66e8baU, 0x3d97668b3d453faeU, 0xbbb12e903c2d4920U,
  0x3d4db72abd194260U, 0x3da3619dbce1d40cU, 0x3cc5c4fcbd06552dU, 0xbd0f52b93cc0cbd0U,
  0x3da4eb753d0e92beU, 0x3ae753003ceeb560U, 0xbdab47c0bd8a81c2U, 0x3d5bdd56bd48e0aaU,
  0x3ca6a494bd53b6f5U, 0x3d9b8183bd90911fU, 0xbd06a67c3d9a5705U, 0xbd3b99653d3f8fbeU,
  0xbd91d1b13d979a69U, 0xbdc0684f3c31c4b8U, 0x3da83db9bcc815bcU, 0x3d8bcb173d0c958aU,
  0xbd8d1c413d03d9e2U, 0xbd569c583d88e071U, 0xbd8ef38f3cbf491cU, 0xbd961c2ebd9ee344U,
  0x3d6709ae3a8d4380U, 0x3d7bb666bd54fc11U, 0x3d1acebebd85f1faU, 0x3cf8ba98bcf99338U,
  0x3cb6d6ec3dae9ad1U, 0xba4e45003d8565cbU, 0xbd93dea8bd114dfaU, 0x3b0499203da0909fU,
  0xbd1bea14bd47e21bU, 0x3cfc9754bdabbcd7U, 0xbc435488bc350cd0U, 0x3dbae9a7bc4e7010U,
  0x3d78b78a3da178bfU, 0xbd7352a63d70301eU, 0x3d893205bce22b0cU, 0x3dc092bdbd61e075U,
  0x3d5f11e63d7ee826U, 0xbd9423313cafb9d0U, 0x3bba35a0bbda4f60U, 0x3bf2f2303c051fa0U,
  0x3c253c08bd9f6364U, 0xbd9386bf3cb398bcU, 0x3c830d20bc89f7d0U, 0x3d02f932bd86c712U,
  0xbd168474bcb0ab40U, 0xbc4b7f583d9c7633U, 0x3d2a207abd92cfa0U, 0x3db9ae1f3bcbdbe0U,
  0x3cd1a63c3d4672aeU, 0x3d53f3023d6c7a82U, 0x3b9d0080bd8d6313U, 0x3d8583d53ca6e5a4U,
  0x3ceba888bced6260U, 0x3d0956babdb6d777U, 0xbd15574fbce07be8U, 0x3d0f4bca3caa91b4U,
  0x3dbf2fdd3dab3efdU, 0xbdb9c0673d56f912U, 0xbd27ab3bbc63baa0U, 0x3a6b3900bdb4e2efU,
  0xbd2db3f2bba71350U, 0xbd5f6e65bd2eb7c3U, 0x3d2853a63d5e7166U, 0x3d8d7039bcd87418U,
  0xbda14f08bd9a12a4U, 0xbb81e2003d39d6f2U, 0xbcc846d8bd6779beU, 0xbd4126943d3450d6U,
  0xbd9ce229bce1a700U, 0xbd9d06c53d972a15U, 0xbd7e546abd112b3bU, 0x3d9a30b13d8c1201U,
  0xbdbf3f113c61f938U, 0xbdacec703da1555bU, 0x3db02a69bdba5b08U, 0x3c70e5503ca45ad0U,
  0xbdb76721bd01832aU, 0xbd8e6c70bd915358U, 0xbd2fbd663d2bc19aU, 0x3cf24fb4bd514057U,
  0xbc649460bd37e738U, 0xbd0c14573d03b1f6U, 0xbd8e78b4ba7f1400U, 0xbd5ac75bbc7f00e0U,
  0xbd937a57bc14e180U, 0x3d84ad37bda9f6e8U, 0x3d5e80de3d9c085dU, 0x3c0a08a8bdac9c77U,
  0x3c7901803c27a728U, 0xbd8b117e3d86a4bdU, 0x3b940b90bcff4508U, 0x3b404420ba837440U,
  0x3d96cf67bd4ea00bU, 0x3d9b46efbd73d39aU, 0x3d26683ebd9def2eU, 0x3d5390c63d05b47eU,
  0xbce41dec3cc27440U, 0x3d9827913c51e1f8U, 0xbd24b30c3c62ba30U, 0x3d5442ca3db589a7U,
  0x3dc0069f3dbc0e3fU, 0x3caf879c3d922967U, 0x3dc09da9bd701a18U, 0xbd79f1373d7404daU,
  0xbdbe7979bcef15d8U, 0xbd646b81bd1ffd08U, 0xbd5f2906bca4c030U, 0x3c0f59a83d6441aeU,
  0xbcea759cbd106341U, 0xbb643c203d5f6ffeU, 0xbdb3ac073cdd442cU, 0xbd399da5bd29a66aU,
  0x3d9b65dbbdbe952dU, 0xbda922a1bbc3b230U, 0xbd244a453daa9d33U, 0x3c68e110bbcb60b0U,
  0xbda94267bc272508U, 0x3d613196bd24e02cU, 0xbd1c31623d60a432U, 0xbd435b323d3cf2eeU,
  0xbd407825bda687b6U, 0xbd8fce4cbd2b74d4U, 0x3bdcad203dc02297U, 0xbd5b7f75bdaac535U,
  0xbda026d7bd6975b4U, 0x3c902d003d4ef7beU, 0xbbb6e080bb31fa00U, 0x3c77b728bca1d73cU,
  0xbd854820bcdc92d8U, 0x3d366f1ebd96cd99U, 0xbc87f7f4bdae1bf1U, 0x3d4aca0a3b733200U,
  0xbcdb4cacb9d26100U, 0x3d6980463d2ecbd6U, 0x3dbf83fdbda8488aU, 0x3c99f3f0bd1bd088U,
  0xbd0355293d50cb26U, 0x3d2abcc63db1bd83U, 0xbcdc3e2cbbb88640U, 0xbcc1e2d0bd6c7460U,
  0xbcbef9ac3d952959U, 0x3b101160bd9d238cU, 0xbc884b98bdb68e3dU, 0xbda24bcfbdb804a5U,
  0x3dafd28f3ca36800U, 0x3d862c01bdbae080U, 0xbda50e853db2c50bU, 0xbc2dbfb8bc89e7c4U,
  0xbb8b06103c49efa8U, 0xbc0f3858bcdd1720U, 0xbdb7234a3d044eeaU, 0xbdaaf242bd16144bU,
  0xbd9f79a0bd2249c2U, 0xbc054830bda0ef0aU, 0xbdafe5e9bc8c56f4U, 0xbc0ae9e03b8ffab0U,
  0x3d5e726e3d99b185U, 0xbc0595903c4421f0U, 0xbd3f6017bcb33e94U, 0x3c0c62f8bcb318c0U,
  0x3db52b9fbc370838U, 0xbca11230bd8ecd4aU, 0x3db3ebef3d0e054eU, 0x3da4b72fbd41173fU,
  0x3d3d83d63d47482eU, 0x3c52d230bccbe798U, 0xbdb37e893d9c6059U, 0x3c4ec450ba47ec80U,
  0x3bb0db003dbf15f9U, 0x3cacc5143d7ba71eU, 0xbd6acabc3cbf9bacU, 0xbd266cf73dbaae0dU,
  0x3d86dd113d890df5U, 0xbc3320483dba0af1U, 0xbce073b4bdabee0fU, 0xbdad04ce3d95288fU,
  0x3c94ce0cbd4ad7f5U, 0x3ce715683d988bf3U, 0xbdb86ad1bc8c6b84U, 0x3c9411f83c545598U,
  0x3cc513443da8ca9dU, 0x3d1ed1c63cd619dcU, 0xbd4b9972bd70164cU, 0x3c4c2fb0bda7619aU,
  0x3ce04dc4bc747c60U, 0xbd517dc33ca03c34U, 0x3d585e9abcca89b0U, 0x3cdf84243c8e39b4U,
  0xbda32f323dafccc9U, 0x3db260413d65cceaU, 0xbd873969bcb14138U, 0x3ce7f838bd9f512fU,
  0xbcfce764bcd67c80U, 0xbd944d613d35b31eU, 0xbd9940563dc0e9c5U, 0x3d81ea2f3d9533efU,
  0xbb96a1f03db77ce1U, 0xbd9b81cc3da3a869U, 0x3dad26433d650686U, 0x3d425bd6bdb1ede9U,
  0x3d99bdfdbdb342dcU, 0xbc672e80bd9aa815U, 0x3d658d4e3d9e64ffU, 0xbc86819cbcc76034U,
  0xbbaf2a503d94ca11U, 0x3c4d20f03dc124f1U, 0xbda8f3173d99c09bU, 0x3da75c5b3d8fc5b3U,
  0xbd7ae5ad3d9df5edU, 0xbd135591bd59c243U, 0xbca546283c2fe550U, 0xbb7ca580bd3143d2U,
  0x3c6fcf70bcbb4a10U, 0x3cc01d083ce0e624U, 0xbb8d18b0bdaaf6ebU, 0x3c375ef0bc00e6d0U,
  0x3d3df9e2bdbc1f59U, 0xbce5aaa0bcf9ce60U, 0xbd4644ec3d7904b2U, 0x3c0783783d888ca1U,
  0x3d8020f53d808b01U, 0xbce65f64bd3fb69cU, 0xbd5fb0953cd1fb1cU, 0xbd6a2d6dbcd214f4U,
  0x3c879ef03da44207U, 0xbd5d8718bdae2df0U, 0xbc993cb83c6dcae0U, 0x3d9557d73c718a98U,
  0xbdaeed1e3db99d11U, 0x3ca6a8b0bd43ca94U, 0x3da411a3bd234fe9U, 0xbd54e8163d8bc84bU,
  0x3cdc3660bcc714a4U, 0xbcf0c30c3cf7d134U, 0x3da8ca993c7a1a48U, 0xbd01b3c63d1b819aU,
  0xbc91beb4bd093ebdU, 0x3cef3cacbd4d311dU, 0xbdaef456bcea40a0U, 0x3d30bc923c2ae720U,
  0xbd6d27803d88bfedU, 0x3d2762babcc98220U, 0xbd3c5b91bdb03f70U, 0x3c61bbe8bd45b7ccU,
  0xbb0ced803d88d869U, 0xbdb22ce7bdc072ddU, 0xbd4bfc66bd041878U, 0x3dab80fdbd3d7687U,
  0xbcd1c888bd60294dU, 0x3da48f7dbc396018U, 0x3ca2e294bc19c4e0U, 0xbc441928bc2fb440U,
  0xbbabf540bc42f050U, 0xbd71b692bd4a3601U, 0x3d91319f3cd05a5cU, 0x3d460eeebd92b8b2U,
  0x3cc51450bd031f5bU, 0xbd908584bd6ea721U, 0xbd93c8253d8d27afU, 0x3daecc79bcbbc2a8U,
  0xbd9f1f46bd1af28cU, 0xbd582526bdab995eU, 0x3c5a7f203d41db4aU, 0x3d97baef3d824d4bU,
  0xbc16db983a99d540U, 0x3c828b10bd91ccb7U, 0x3b30bd60bd96a650U, 0x3c835808bd8dcc38U,
  0xbc303b70bd699fe7U, 0xba436980bdaab7baU, 0xbd6c22ffbce9863cU, 0x3dba6f51bd8d6358U,
  0xbda585e0bdbc171eU, 0x3d3a011e3cfbdcfcU, 0x3d46f652bd9d1760U, 0xbd4fedc9bd9f777aU,
  0xbdb1ae7c3c3ad558U, 0x3a8c14c03da5d613U, 0x3da3e79d3c3e0808U, 0x3d952df53d5a27caU,
  0x3daec4673d8a77afU, 0xbd6f1616bd57bd08U, 0x3cc64b403d936101U, 0xbcda05783d667afeU,
  0xbc9520e4bd56eeb0U, 0xbd2b4e61bdb6d38dU, 0xbc510b98bd771549U, 0x3da612a3bda2953aU,
  0x3b6ceda0bceff114U, 0xbd6066debc4b7a40U, 0xba4dd980bd9f6758U, 0x3c7b9760bd36efa5U,
  0xbdb29062bd41cec8U, 0xbda3b96b3d790f76U, 0xbd9f2720bda276f0U, 0xbc7bcab03d3526c2U,
  0x3ca2569c3dbeb3a1U, 0x3d7fc46ebc661178U, 0x3dc033993d14b85aU, 0x3c9dfea43d79171aU,
  0x3d00b0363d10b92aU, 0x3d026e02bd97908cU, 0x3d4524c23d0854a2U, 0x3d015aa2bdbe7bf6U,
  0x3db875373d84fb0dU, 0x3c9cf9b83d9ee65bU, 0x3dad81d1bd41a264U, 0x3db205ed3d6e17a6U,
  0xbcd7dc60bc737990U, 0x3d8c17cf3bc85580U, 0x3d8adef5bcc29318U, 0x3dbff4c9bda9a619U,
  0x3d4e270ebd584a59U, 0xbdb754873d0cbd6aU, 0xbcac9ec43c1de640U, 0x3d06194e3da89927U,
  0x3d77f1523d46935aU, 0xbd9b1a3cbcdd06f0U, 0x3c01d3a83d7c031eU, 0xbda92198bdc02484U,
  0xbbc0e2b0bd8b2ca1U, 0x3cd42a24bc4ccaf8U, 0xbc4ac4103c9ef310U, 0xbd75f1643d239122U,
  0x3dae7d133d01dd56U, 0xbc23a1c83dc01b35U, 0xbd9b686abd8bfe25U, 0x3db3f685bd3b5381U,
  0x3cfd6b2f3d890bccU, 0xbd9df47dbc69aa5cU, 0xbd5ef4fa3cdfdb93U, 0xbd6103c9bc598967U,
  0xbd0f878fbdaf519dU, 0x3d0d49fe3da92e1cU, 0xbb7ee8a5bd9dc474U, 0xbc2b1393bd9dae8eU,
  0xbc2d87a8bd8e5af0U, 0x3d3895ccbc860340U, 0xbd09fdf8bda41abeU, 0xbd491814bd9fa40dU,
  0xbd7365943d9bc22eU, 0x3d710f843bbb4920U, 0x3b651f2ebd0d6f4fU, 0x3d86250ebcd8dc7aU,
  0x3ce53d4a3d918d81U, 0xbcdc0d80bda262aeU, 0x3ce1a91dbd9a1edeU, 0x3d2240303d6201a3U,
  0xbb8bf2993d1cbe9aU, 0x3d252833bd807eccU, 0x3d9ed04bbd76d2e3U, 0xbb8766d6bbfb6e78U,
  0x3d053a703d77dea3U, 0xbdc73357bb9c98ccU, 0xbd8f86f43dbaa842U, 0x3c92ed17bdc3dbb3U,
  0x3d0409033d897330U, 0xbd4ee8333d9865c4U, 0xbd3d3657bd982bc8U, 0x3c027cccba6162d0U,
  0xbd25d1693d19df0bU, 0x3da74caebdb52821U, 0xbd420b5fbd99ac2cU, 0x3da555a93d9ee074U,
  0x3d9f9d2fbd4ed03dU, 0xbd8a2a77bca4d78bU, 0xbd939e98bc71f724U, 0xbc380f043d285e91U,
  0xbd396363bd99ca52U, 0x38bf61a03d77ffaeU, 0xbd0dc5ec3c42843aU, 0xbdca0c5a3da3b196U,
  0xbd9ddc64bdbecedaU, 0xbc113aa6bc5381c8U, 0x3d09c65fbcbc177eU, 0x3bafce1cbdb9846fU,
  0xbd4030c0bca29630U, 0x3cfe19c43da1ee9eU, 0x3d0e54833a0b856cU, 0xbdc54a40bdc317c2U,
  0x3c939e523ca709b4U, 0x3dbc9394bd919478U, 0x3d01f07d3d8748a4U, 0x3d6a22d23be6acd2U,
  0x3ab18a3cbda411d4U, 0x3d3859b9bd824561U, 0xbd5f8e02b9896408U, 0xbccc2b1ebdbce3fcU,
  0x3c0ebfb03dbbfff7U, 0x3d3b27363c9146acU, 0xbd9e131dbcb9573fU, 0xbd0190443dac4d2cU,
  0xbdaaf496bd95b366U, 0xbd4ae17dbd315f8aU, 0x3b18cc32bd9c9e9cU, 0x3da542cfbdbbfdaaU,
  0x3c7bec0a3ca091a7U, 0xbd3b1f2fbd895b35U, 0xbd976179bd9ff80aU, 0xbd98018f3db5b815U,
  0x3d8d822ebdb1f02dU, 0x3d7145bdbbca91f2U, 0x3d514c1dbd7ef67eU, 0xbd235a703d40f3a4U,
  0xbbc0588d3cb86e02U, 0x3da462dabb3e10b6U, 0xbd908ac73c0a957aU, 0xbda739cd3d9f1823U,
  0x3d553d903d92167bU, 0x3c5689cebd620b54U, 0x3c954b74bdc59e99U, 0x3d46b1ee3d857f18U,
  0x3c997d1bbdaf300fU, 0x3d8f6cacb9aaab28U, 0x3d82ce7dbda9854eU, 0x3d36d748bd958aa4U,
  0xbcf330fdbb8b34e9U, 0xbcb87df7bc5b35fcU, 0x3da50d95bd0d0812U, 0x3d4ca1d0bd2ac329U,
  0xbd8a84693d713c47U, 0xbd17bdb93b823d9eU, 0x3af50c9e3d38c59fU, 0x3da2a7aabd899a1fU,
  0xbc8aa7ef3d9423b6U, 0x3caf52993cbf89eeU, 0xbdb3b4543d9df2daU, 0xbd1494ee3cc88853U,
  0xbdc3f9e53babfaa0U, 0xbd9759423d31b7b2U, 0xbc9069e7bcf5dfd5U, 0x3d9224583d54e192U,
  0x3db24157bca5fb02U, 0x3db8f05f3dad0c37U, 0x3cad1ff23d4be6beU, 0xbd31dc9cbd2622b8U,
  0x3da4bf8fbd466800U, 0x3c9a0f793d09a510U, 0xbdc103f1bd99af95U, 0x3d2e696b3dba7aa9U,
  0xbdbdd47e3d7aa5a7U, 0xbd0829bebd876d50U, 0x3bfb6a36bdc3bcacU, 0x3da0ce5e3d494832U,
  0xbdb6781f3db52751U, 0x3d9956bfbbcce99eU, 0xbd201a263d29960eU, 0x3cfd8bb83da010b1U,
  0xbc0c2e923d7e4584U, 0xbc836f583ca32bdaU, 0x3dae916b3d83c40dU, 0xbcdda6e9bd4fe28aU,
  0xbdbad82cbd073341U, 0x3db4f098bd891609U, 0x3d6c1be03d79f049U, 0xb8d76b20bd2d2144U,
  0xbcfdc5a53b8943bdU, 0xbc9f20a1bcce8a28U, 0xbdb773b6bdb83a8fU, 0x3d5cf7333d91ced7U,
  0x3d432b983dae5204U, 0xbc967edbbd44ab32U, 0xbc09dff5bcc18808U, 0xbda42320bd99d415U,
  0x3d15c20ebd23aee9U, 0xbd7f815fbd96cf0aU, 0xbdc0f0b83d256b22U, 0xbdc03949bc683248U,
  0x3d810b60bd9ca3eaU, 0xbc2d3394bd4cf1e6U, 0xbdafa5bb3d96da06U, 0x3d98a8fb3d16b268U,
  0x3cf6b357bc1a2f8aU, 0xbd87b529bb770570U, 0x3d8f313a3db4e8aaU, 0xbd3abb72bd534741U,
  0x3d954293bcb78dccU, 0xbd50be83bd88bef4U, 0xbd2fee3a3d9a6d43U, 0x3da7607d3c650d06U,
  0xbd326e6bbdb671c8U, 0x3d980e543d6d3884U, 0x3cfc93fabdb6c681U, 0x3d9f12d1bd28f305U,
  0xbd0bdcbfbdb1a8a8U, 0x3db758ce3d13be30U, 0xbdb9f5e03d9c4459U, 0xbca79970bd61220fU,
  0xbcf44567bba49c18U, 0xbdc09f48bdb07999U, 0xbd3a38453da82ee3U, 0xbd06c35e3da7daddU,
  0xbd366c46bb3a408bU, 0x3ca2df88ba863b24U, 0xbdae37c4bd89d68fU, 0xbd824448bd5bef5fU,
  0xbd530201bdc116c2U, 0x3b883b753d51143fU, 0x3d19d2213d8ad5fbU, 0xbdafb7393cb62b06U,
  0x3d032f1ebbf5f047U, 0x3d82d79e3d3540d3U, 0x3c161dc6bcb395f5U, 0xbcdc71ef3c46578fU,
  0xbb38b68dbcbaed39U, 0x3da5286ebcf12a14U, 0x3da7c12e3c6d8a97U, 0x3cf2c67a3c0db267U,
  0xbdb111273d863cc2U, 0x3da550e93db6644dU, 0xbd363440bd3f8428U, 0x3cbf091bbd3ba937U,
  0xbd331e15bd1134f4U, 0x3cd6d1ba3db5d1c4U, 0x3c6bed1ab9dc2768U, 0xbd520190bd1d100bU,
  0xbbb71ffa3d201921U, 0x3bd887dd3dac931dU, 0x39a2cfd8bd41b3c0U, 0xbc4eb9afbc18f504U,
  0xbbb9e13a3d7393f1U, 0xbd09c4353d09fa29U, 0xbdc04345bd5c7b83U, 0xbce5aaf43d33422aU,
  0x3cc5320d3d17f10cU, 0xbd0284acbcb07e0aU, 0xbd88e2a8bdbaa58cU, 0x3c04591d3da8398fU,
  0x3daa78b5bd1b160aU, 0x3cdaf9b53daf7302U, 0x3dbfb35a3b55ce50U, 0xbdb87af8bd9003b5U,
  0xbc3c5746bc841752U, 0x3d986b3e3d20ca46U, 0x3d977c4d3cae4f26U, 0x3db859aabc84b42bU,
  0xbd3cff023db2c503U, 0x3d698ec93db1d450U, 0xbcdf0724bd45acf2U, 0xbd874d943d5475ddU,
  0x3d3e95d3bd7bafd0U, 0x3d950490bd139682U, 0x3daed48f3d3d23eaU, 0xbd2c5c68bd090f99U,
  0x3d0178d3bd645252U, 0x3db794e2bc0bfc28U, 0x3c4285193c9aa764U, 0xbcc737d33dbb8abcU,
  0xbdbb113d3d80eb75U, 0x3cd0b938bc968968U, 0xbdc290f7bd984b47U, 0xbd7019adbd5ab8a0U,
  0xbd80005fbbae5f57U, 0x3da911213d4599faU, 0x3d18c0f43c22a9e9U, 0x3c2150873cc8f5b8U,
  0x3d8c37263d431823U, 0x3d7458c1bda93ed6U, 0xbcc31304bd6800faU, 0xbdc604013db885a9U,
  0xbc1b4b9abd9136feU, 0xbd805ae33c8b8606U, 0xbd91ad143da7ba2aU, 0xbd9308f63daa00bbU,
  0x3d9a827cbdb11dd0U, 0xbd5d07f8bda1d784U, 0xbcce9dcdbd00ba83U, 0x3c355fa23d484477U,
  0x3da7c498bd859134U, 0xbd9f69493d8dbb5aU, 0x3c61d1893bdefaf8U, 0x3db6162f3d806b40U,
  0x3d2f7628bdbc099cU, 0xbbf250fe3db8ecadU, 0xbd18ea453c446d42U, 0xbdaedf5fbd4767baU,
  0xbda916e3bd112625U, 0x3d255d35bd81e15fU, 0x3ca5b1213d8b7a0fU, 0xbb0de8133c7087acU,
  0x3d0628ac3afbbfecU, 0x3d8770cdbd53d765U, 0x3c6479533cf385bfU, 0xbcd3cdf93dabedabU,
  0x3d550e7fbd75a27aU, 0xbd876904bd898882U, 0x3ad1662cbd8314caU, 0xbc1063e2bd32834fU,
  0x3da0275aba2be6f4U, 0xbcaecb21bd52348aU, 0xbd35a7c2bcab7623U, 0xbd76154fbd90490eU,
  0x3d5b0daf3b12de26U, 0x3d3bda83bcbb3ad3U, 0x3d2a74ce3d95cf44U, 0xbc83d2693b95decaU,
  0xbca01ea93d73ea7aU, 0xbdbdc7c93daeff54U, 0x3d8dc2a1bcebc698U, 0x3d0271f93d0d5ee8U,
  0xbd96af8f3d4cb70eU, 0x3db59e393d8ffa53U, 0x3d8ae74ebd5f5815U, 0x3b815f623d12ef6dU,
  0x3cffec2b3d6064bbU, 0xbc11de84bc84aec0U, 0x3cf1a0ef3c646ab1U, 0x3d4b8ec2bd313b0dU,
  0x3c9e16503d7fcd4cU, 0xbd073f813d4decd1U, 0xbd746d1dbdbd2862U, 0x3c2e1c51bd1762eaU,
  0xbbcba1463d55cb06U, 0xbcb9c30e3d8f154eU, 0xbd76356abc0e2a0aU, 0xbc8ae066bd94b9b1U,
  0xbce8b6a6bc595b4dU, 0x3d141bc8bd5a4868U, 0x3d81c00cbd0c26a4U, 0xbdb79ca13d0f03ccU,
  0xbb71bd8b3c81a603U, 0xbc63b5023d331f28U, 0x3d2391f53d8ff7d9U, 0x3c02253c3cc34deeU,
  0x3cdc4f193db44fb2U, 0x3db0bfcc3dab7993U, 0x3d335e65bd4c067cU, 0xbd394ba9bd82d915U,
  0xbd941ed13ab13728U, 0x3baa4dd93db04538U, 0x3ccd2cc4bd64240aU, 0x3d931f6cbd24f717U,
  0x3b911276bcbf54f4U, 0xbc429246b9d31bd0U, 0x3c00d0803d66b5e2U, 0x3d85f7e4bc98d425U,
  0x3db60999bdb31832U, 0x3d9070d53daf57b6U, 0x3d9368e9bc9954c8U, 0x3d4e8189bd20437fU,
  0xbd14ffd2bc5603e8U, 0x3d4a75dabad0c7c0U, 0x3d9d69a93d77d842U, 0x3bb6bdf0bb79a7c0U,
  0xbda6a72d3d7be8aaU, 0x3d229ca63dbcbf25U, 0xbda9a512bd170147U, 0xbc87fb94bb08f640U,
  0xbb851e60bd4bb8cbU, 0xbd47be713d8be763U, 0xbd38c5d7bd08f061U, 0xbd6b9f67bd9b685eU,
  0xbd0cfdb83d2baffeU, 0xbd5947f03c4006a8U, 0x3d0f0dc23d20beeeU, 0x3dacae4fbc59ada8U,
  0xbc95fd4c3c9769dcU, 0x3bed0900bda7b97bU, 0xbd99f894bb397b00U, 0x3d9ea6e7bd6d513aU,
  0x3ce3bbcc3cd60d44U, 0xbd0b2caa3d83a36fU, 0xbc49d238bd1b5604U, 0x3d9780a73cf36768U,
  0xbc55a2f03d78c82eU, 0x3cc8c62cbd8e1810U, 0xbdb8783dbd909308U, 0x3dbb24a93d4124c2U,
  0x3dbc55c33d66daf2U, 0x3c685ba83d3f88b6U, 0xbc18e6f0bd8f8bb3U, 0x3b8ea3a0bd92b6d5U,
  0xbd7f3ddc3d03c50eU, 0xbcb52440bdbd2e56U, 0x3d284c923c7982c0U, 0x3d0927323d87506fU,
  0x3ccbd0f43b375d60U, 0x3d95b069bdb2ba74U, 0x3dab1983bd58d157U, 0xbd3815e13d2ac682U,
  0xbdb4532ebdb18d5bU, 0xbc9899883cd1631cU, 0xbd77c3fa3d95b3c5U, 0x3b926f103d7fbf56U,
  0xbd8bf824bd7c1b4aU, 0xbcaa0188bdb43fc8U, 0xbd9e5cd43ccc5978U, 0x3c8686303b9cba50U,
  0x3c9deac8bd48a875U, 0x3da17fcdbd302f1dU, 0xbbe86790bdab778aU, 0x3c8c9c70bcbc10e8U,
  0x39c882003d0e8e6eU, 0xbd8d5bf0bcdfbf7cU, 0xbd20ea83bdb2c084U, 0xbd8ef380bd5bd472U,
  0xbdbe0df6bd649083U, 0xbcd09e043d225c0eU, 0x3ca272f8bd8890b5U, 0xbd20fc52bb9d33d0U,
  0x3b0ea460bda15b2bU, 0x3cbb470c3d0cc91aU, 0x3d659796bc1f9d28U, 0xbca68c84bd5e5ac5U,
  0x3d5c15663d18c1aeU, 0xbc2d2d183d998d4fU, 0xbbdcd5b03da8db23U, 0xb9cb35003b9c3450U,
  0xbd01e2a0bac11d80U, 0x3bb0ab40bdbf3782U, 0x3d1d3706bd2c09edU, 0x3d2cb93a3d6c55baU,
  0x3d7133863d4a2b52U, 0x3d8c0c253d74cfb6U, 0x3c90566c3d8b26c1U, 0x3d29fbc63c9b0be0U,
  0xbdaa50b23d67754eU, 0xbda940dcbd9a646fU, 0x3d864145bc6e3af8U, 0x3dac505f3c50a828U,
  0xbd8609d6bc831d98U, 0xbd5c58f0bcf02dfcU, 0x3d95dad5bd19ca80U, 0x3cbe1e803d8c7c8dU,
  0xbd3b7af1bce4cc54U, 0x3d7b940ebd022388U, 0x3cac64ec3d6dadfeU, 0xbd6ccd41bda81884U,
  0xbcaadb703d9b8f4dU, 0xbc9e1d743cbd675cU, 0xbdc06b9c3d6bb232U, 0x3d1f3e0abd4cd2cfU,
  0xbbe79460bcc5bafcU, 0xbc95a0d43db95a1bU, 0x3d658b3abdbaa5b3U, 0xbd7245953d209a0aU,
  0xbd796a63bd47694aU, 0xbd3983463d4dbb9eU, 0xbcfe5660bd7d6548U, 0x3d7533c63dc09aa5U,
  0x3cc15590bd1322bcU, 0xbdb6e8fb3d9ff0a5U, 0xbd9221e63c5927e0U, 0xbcbdc130bd443709U,
  0x3d0f7fcebccb55b8U, 0xbd88b30d3b337000U, 0x3da64a0d3c96c2f4U, 0xbdb97546bd637710U,
  0x3da4f69bbcb8174cU, 0xbcb50360bdb2ac47U, 0x3cf3a094bcbeeb0cU, 0x3d5ae1f6bd2b4d33U,
  0x3c3f47f83daae6d1U, 0x3da26de53cbf6418U, 0xbd749cffbd838c16U, 0x3dab2aa9bd9e2b81U,
  0xbd6e098abd480d28U, 0x3cf3fb883c5d4d08U, 0x3ccef5ac3d4400caU, 0xbcb2d0cc3db472f3U,
  0x3d75b3d2bcdc75b0U, 0xbd241984bda6a837U, 0x3d369fcebb029120U, 0x3cda86dc3daa5691U,
  0xb88fa800bc5b0db0U, 0x3d9a8a3fbda08fbcU, 0x3cfd822c3b0d05a0U, 0xbd11c43f3d1d3e96U,
  0xbd57e8143ad62100U, 0x3b11e0c0bd770cf0U, 0xbd188c77bcd95aecU, 0xbd84ce2dbdad75d6U,
  0xbdb1a1e03c3a85e8U, 0x3c9b9a403db64073U, 0xbcfc1e543d6bb20aU, 0x3ce15238bd32151dU,
  0x3c5ce3a8bd722319U, 0x3ce461b8bd199152U, 0xbd4b08e73d5865d2U, 0xbcf09160bdbc75edU,
  0x3db98b373c218238U, 0x3c1d95b0bcb42b80U, 0x3d102cca3d4ffe82U, 0xbdb8c025bdbef403U,
  0x3ceedab03b6222a0U, 0xbd907016bc1420e8U, 0xbc37b1c8bce916f4U, 0xbdabf00abd05d238U,
  0xbccd25743d7952ceU, 0xbc91d9743d8ce1bfU, 0xbd257661bd597094U, 0xbd2e2359bd811828U,
  0xbd89e8b3bd96c750U, 0x3d5898063d96169bU, 0xbd2d5866bd9c17b5U, 0xbd16d7633d6160aeU,
  0xb940ec00bd23cfceU, 0xbd3547f63dab86f1U, 0x3db8597bbda77351U, 0x3d5552c23ce2a138U,
  0xbdae09123db56e4dU, 0x3dab46353cc43da8U, 0x3db431c13db4ba67U, 0x3da206fdbd7d6084U,
  0x3c7960e0bd70d5f2U, 0x3db78eb5bce30490U, 0x3c473c403d4820a2U, 0xbd57b41ebd097076U,
  0xbc485870bd95823aU, 0x3c305a503dabc98bU, 0xbd7e6f903d8876c3U, 0x3b2705203d2f716aU,
  0xbd1be5c33cc795c0U, 0xbc0a64103d3a28d2U, 0xbd7cdd10bcdb4900U, 0xbdbb273b3d8bf14dU,
  0x3dbaa9fb3d84474dU, 0xbdb054103caaa2c8U, 0xbd62f23ebc20fad8U, 0xbd18afcd3dc00e43U,
  0x3cad76b0bd536caeU, 0xbd4c15d33da494a7U, 0x3ca2616cbc17e2b8U, 0x3d82bfcbbd30f357U,
  0x3d037e52bd85bbe7U, 0xbd73c4e83da88269U, 0xbda0c200bd6e077dU, 0x3d697caa3d101f2eU,
  0xbd3e9670bd985170U, 0xbdbadd4bbd01234eU, 0xbda840093bacbaa0U, 0x3db53545bd39d9c5U,
  0xbd0833ad3dbec98bU, 0xbd37ae903b67e7c0U, 0xbd830569bd911528U, 0xbd9b546d3ca58f3cU,
  0xba54d080bb767d80U, 0x3c9daf703d3ecf02U, 0xbd2fbcb63d29f0caU, 0xbda8a19b3d8524c7U,
  0x3c8d820cbd3478b8U, 0xbba9b1f03c113308U, 0xbbb36d30bdbdedd2U, 0x3d5707b6bc9a263cU,
  0xbd2c44cdbdbd2a96U, 0xbd4bf3083c2abfc8U, 0xbd93f17ebd2e09d4U, 0x3cb0c314bd01054cU,
  0x3c789318bda9893aU, 0x3d9de321bd0fee79U, 0x3b8ad1703dab76c7U, 0x3d333c0e3b5a82c0U,
  0xbd3d5bbb3d727a2aU, 0xbd2034ad3d56dc26U, 0xbd6b8f623cbfb184U, 0xbd998fd6bd1c6839U,
  0x3db32a033b22fd60U, 0x3cbb07b03dbffa23U, 0xbd1c2df7bc7a9670U, 0x3da995e53b3206e0U,
  0xbccb02d83da4d817U, 0x3cd9a6c8bd0fe534U, 0x3cf22c6cbc5ce498U, 0x3b68a7203ce003ccU,
  0xbdbf82babc8f8fe8U, 0xbc32bd383da80bcdU, 0xbc8ff160bda1cc60U, 0xbd8d6301bd23561dU,
  0xbc5d64103d1d570eU, 0x3d9311273d5a66e2U, 0xbccbddc8bcb5be18U, 0x3c237bf0bbc48d20U,
  0xbda744a33daba0f3U, 0x3c3d1e70bd1cba92U, 0xbdb56f633c8c1964U, 0xbc6fda483cb1aab4U,
  0x3d8a73a53c41bf30U, 0x3d2951323d491bdaU, 0xbdad71ac3d950e1dU, 0xbcba80a03d8a8979U,
  0x3d685e12bbb219e0U, 0x3a9ce8803c20a770U, 0xbc5b54d8bc23dd20U, 0x3cecfad4bc130110U,
  0xbd59d3ca3d9b69b9U, 0xbd616cd5bce3cf60U, 0xbd6a8258bd148b0aU, 0x3d90a20fbd99104fU,
  0xbd8bd09cbdbe1f1cU, 0x3d0bd56e3db586f1U, 0xbd66abd8bdb3f480U, 0x3d9190513d424056U,
  0x3cd968f0bd08c5f2U, 0x3c7ac040bd9ab068U, 0xbdb861e63d708aa2U, 0xbc2edfe03d896b67U,
  0xbd8669bf3cc628f4U, 0xbdb3f0edbd2e222bU, 0xbd838b1ebd862befU, 0x3c3dc3883d55698eU,
  0x3da4beab3c47b4d8U, 0xbdc01a873dbf922dU, 0xbd8202863c70e928U, 0xbd03d59f3c93f030U,
  0x3c0b1da83d847f47U, 0xbdaba117bd40a960U, 0x3b8ef740bce5c7a4U, 0x3d1e968abd421e76U,
  0x3d91a1e73d96a2b7U, 0xbd3c05613dc04ef3U, 0x3b91ddd03cd83354U, 0x3d05fa7abdbf8bedU,
  0x3d981855bd8a0a04U, 0xbca6f874bd260948U, 0x3d8558bdbd426a09U, 0x3d6ed4b2bd84e04aU,
  0xbd1e98cfbcad9818U, 0xbd5974c13c73f1e0U, 0x3ce56270ba21eb00U, 0xbbe6c200bc62c508U,
  0xbd8d04b33da88065U, 0x3ce748583da085ffU, 0x3d33d4623bdfc400U, 0x3db48ab5bd8b7029U,
  0xbd797676bd8bcf3bU, 0x3d9211e33cf67f88U, 0xbd393cdd3d49b3aaU, 0xbd2f2d35bc42eea0U,
  0x3c9d34383cccbe30U, 0x3d563a323da6fbb7U, 0x3d2a75febd9aa269U, 0x3db31525bbc67a00U,
  0xbd95291f3d177c1eU, 0x3db6dc35bdaf0679U, 0x3cf685a8bd09b3cdU, 0xbdb6d7683ce50e9cU,
  0xbce68dd0bdbdf6cfU, 0xbd226fb03d35cd8aU, 0x3c6b9e90bd2418bdU, 0x3da9fb793d80f03bU,
  0x3d91644b3d8683b5U, 0x3d118e8e3cf3b100U, 0xbd8b2a9a3c8fe2e4U, 0x3d0b4636bd64bb8fU,
  0xbd6b039bbdb07ac2U, 0x3d0a65c63dab4aabU, 0xbd058b4abd51dba4U, 0xbd70f143bd32ecbbU,
  0xbdab96fcbcf9b138U, 0x3dad87533d93d847U, 0x3d0debaa3c14aed0U, 0x3c267e80bc95ba04U,
  0x3d917db13c0325b0U, 0xbd2b9b2fbd59f79eU, 0x3dbd1a0dbbdc08f0U, 0x3c24fd003d750b56U,
  0x3d91e50bbdad7207U, 0xbdb819013db6ca81U, 0x3d962dd3bc14a428U, 0xbcd737d43d81325dU,
  0xbcb5fdb03d492c4aU, 0x3d75b39ebcdc65fcU, 0x3cbb6f4c3c7f1678U, 0x3d99a1bbbd452c52U,
  0x3c913cbc3d181c5aU, 0x3cd50b10bdb4b19aU, 0x3cbcad103ca0ec10U, 0xbd65c9d4bdb40a03U,
  0xbd3b6d67bcf11f90U, 0xbc285c98bd81e7faU, 0x3d303026bd1d7965U, 0x3d6d90f63d3fdefeU,
  0x3d6022eebdb3d621U, 0xbd0f30febd26ac82U, 0x3d91978f3d8f5d87U, 0x3dbfe8c13d187872U,
  0x3d4ee0c6bd4cf9ebU, 0xbc9c05c4bc8346e8U, 0xbd9bcb8ebc675138U, 0xbcc76b403d9be345U,
  0xbda3b1f13dbac58bU, 0x3db882e7ba497f80U, 0x3c577748bd665169U, 0xbd469bbf3d58a096U,
  0x3d74853ebd19c8b5U, 0xbdb721b5bc871924U, 0x3d07f4663cd71718U, 0xbd1aea2dbd53b817U,
  0x3d7b2c823d94063bU, 0x3bc9e170bc230e38U, 0xbd6b17473c4e5f48U, 0xbcfc0a543d695056U,
  0x3dbf5131bd387a0eU, 0xbce9a34cbb9a71e0U, 0xbd8eef623cb11d60U, 0xbd0f04b8bd956dbaU,
  0x3d48680a3da93b7dU, 0xbd4322fd3da2652bU, 0xbd95a9163ca8d080U, 0x3d97d55b3d99e259U,
  0xbd13aa1bbdbd7858U, 0x3cbaf9683c3be270U, 0x3d8bc3693db1d509U, 0xb93484003dbb0653U,
  0x3d85e0e13db23e07U, 0x3db997a13d5e5ec2U, 0xbd7e7478bc8b724cU, 0x3bdb75303c345590U,
  0xbd5fc0683d4d312aU, 0xbbb114903db318bfU, 0xbc85e210bc341708U, 0xbd3e70033daf8a4fU,
  0xbda5a551bd79c276U, 0x3c63f520bcf53bacU, 0x3cafcbf83ba64a20U, 0x3dacb6b53c59c6c8U,
  0xbc30c1d0bdbbdcffU, 0x3d01c132bd4044c6U, 0x3c887398bdab7571U, 0xbce5c4e43d907659U,
  0xbd45f7a0bd2d11feU, 0xbd2ea691bd87472dU, 0x3bca1e903ce39748U, 0xbd7587933ced4258U,
  0x3bfca7903cb84a70U, 0xbd5e2c4e3c07fa28U, 0xbdba34debce0efe8U, 0xbcfafd303dbc311fU,
  0xbd073b22bdaa880bU, 0x3c28c2e03cc43ce8U, 0x3bf107c0bd940fefU, 0xbdbbd7383ccb3568U,
  0xbccd67b0bd9b1f00U, 0x3cc9f0e437ea6000U, 0x3d159c6a3cfe2cfcU, 0xbda7e6a33d9d8939U,
  0x3d82ff2f3d98c09bU, 0xbccd63503d78bbbaU, 0xbc5979f8bd11acaeU, 0xbcf502a43c3775d8U,
  0x3d80435f3d8e2649U, 0x3cb0312c3d991553U, 0x3cd3b47cbd9a6d3eU, 0x3d963c45bd30a4e3U,
  0x3c7f19383ca494d4U, 0x3dbc0665bcc89f58U, 0xbd61f9b83ccdb4e0U, 0xbd257f8d3c4faa40U,
  0x3cb37d0cbc895440U, 0x3c533cc83d573892U, 0xbd2f2a60bd3ff512U, 0xbd176562bd24e10bU,
  0x3d440f9e3d52bfd6U, 0xbcfbf4343cdeb21cU, 0x3c0646f0bd64826eU, 0x3db96df33dbba8edU,
  0xbd26abc13af5de80U, 0xbdaddf80bc17a200U, 0xbc876928bdbc1c3cU, 0x3bdb1190bdbb37cdU,
  0x3da8f27fbb27ad80U, 0xbcbe1f343d2f8456U, 0x3d9bae25bd8743ebU, 0x3c2b69b83d594e62U,
  0x3c4756503d952e05U, 0xbdc05545bdb866d4U, 0x3c5437c83d137a26U, 0x3da809ff3ca71f3cU,
  0x3d8ce4953c5d08c0U, 0xbda0b49d3baf8e50U, 0xbd649e68bdb8fa9bU, 0x3ca9993c3c3c9ba8U,
  0x3cc47cecbd502f98U, 0x3d9f176d3db1cdc9U, 0x3d4ba926bd93965aU, 0x3d4f2d02bd676411U,
  0x3ce0adc43b49a360U, 0xbd997ae43d90bcd7U, 0x3ca8dab0bd3ffe93U, 0xbda28b6dbd51e9efU,
  0x3d9a6f25bd4ccf64U, 0xbc64a2e83d4542aeU, 0xbdb8cbe13b922a60U, 0x3db591eb3ac58f00U,
  0x3cd2da1c39cbe100U, 0xbbdd4a503da67f23U, 0xbc111530bd3d2203U, 0x3cc20cfc3da80a6fU,
  0x3d7c8c023d98c14dU, 0x3d4f63363d913b3dU, 0x3d957ec1bc73c2e0U, 0x3b0cd6e0bd527c95U,
  0xbc639cb83c8ba564U, 0x3d3ad2b2ba739b80U, 0x3d465e763d958057U, 0xbcc324f83daa61c9U,
  0xbd6bb0db3c3b6768U, 0xbd377856bc8ed9d0U, 0xbdb2526bbd0e6934U, 0x3d97c5cd3d6421b2U,
  0xbd986617bd82d261U, 0x3cdbd01c3be0ec40U, 0x3d2f01febb916410U, 0x3b0631203d850927U,
  0x3dad4dc53cd14cc0U, 0xbd37e958bdba015dU, 0x3d68698a3a62db00U, 0x3ceca44c3c9bd270U,
  0xbcd7dd90bd20c41dU, 0x3d2384aebccf18dcU, 0xbda7ee0e3da71405U, 0x3d9eb92d3cd4c754U,
  0xbcb0d94cbce1de54U, 0x3d45885e3d33ffe6U, 0x3d41a0e6bdbbf92fU, 0x3aaa18c0bda22230U,
  0xbd1fb21e3d1323feU, 0xbd714c0dbc3e0f20U, 0x3d77e03ebbd8f460U, 0xbd8d85c3bd4796d7U,
  0x3d0a6efabd77dec6U, 0xbbe90700ba78f680U, 0x3dae5e57bc0318f8U, 0xbd9620743d1abd66U,
  0x3c8139ccbbc28d30U, 0xbd7fa533bdbdcf7aU, 0xbaed2a803ccee63cU, 0xbda4012cbdbe094dU,
  0xbc1963b03af4e700U, 0xbd199ace3d938303U, 0xbd92c0f43bc97090U, 0x3c8dfe44bda8417cU,
  0x3c98cdb4bd61cb4dU, 0x3b030c203b9ba310U, 0x3c7df868bdaa87c8U, 0xbd61548fbd0eb1edU,
  0xbc7eb0d83d9ab3a1U, 0xbd9647223d2c338aU, 0x3c5676d83d291122U, 0x3d346cd6bd656d27U,
  0x3d843a45bd89b34eU, 0x3c7ae358bdb4f8faU, 0xbdae03aebcb5e118U, 0x3bca7cc0bd882c3cU,
  0xbd6fdb963d003fdeU, 0x3d05de3aba4f0180U, 0xbc1570103d65f1c2U, 0xbd1f2c483ba21ba0U,
  0x3d3ab2963db12cafU, 0x3d6fa52a3bf199d0U, 0xbd028518bd8e27aeU, 0x3c13a508bda6fb2fU,
  0xbcbd6d583d00f146U, 0x3dbe0a6f3d0e9f86U, 0x3c0c6690bd2f0ef7U, 0x3c38da203d679c52U,
  0xbd6134dcbcdd8144U, 0xbd74c3cc3db79755U, 0xbd276c1cbd1ff1c8U, 0xbd075154bbd95250U,
  0xbcadeef0bd118764U, 0xbdb39366bd01065cU, 0xbd7dee29bc4f52b0U, 0xbdbe6f18bdb4c1b0U,
  0x3dbc3fc5bd41a6d9U, 0x3d00160ebce63fe4U, 0xbdb0656c3d92c78bU, 0xbbaf4700bd813ee0U,
  0xbd53edccbca1c050U, 0x3cb4c10cbd1cc8bfU, 0x3daf4a6bbd9f163dU, 0xbd95f010bc05b480U,
  0x3c8c6404bd34f67dU, 0xbce1ec88bdb2ff30U, 0x3abed0c0bae085c0U, 0x3d9c9e4f3d8f3091U,
  0xbd3feb3c3daba721U, 0xbd55c990bd89dc38U, 0x3d88ed9bbd9cdb43U, 0xbd3ceddc3d4813beU,
  0xbda31e48bc9a2344U, 0xbc4dea90bd8c5181U, 0x3c926a483d8b1f9fU, 0xbd6dcccdbd85b745U,
  0xbd2899843db61da1U, 0x3dac31553d496252U, 0x3d8d88133c7c9118U, 0x3c3d6f30bcde8134U,
  0xbd78b52f3c0e73e8U, 0xbd0f8b493da2f095U, 0xbd7d1f403d1be082U, 0xbdbc54e8bd7f76fdU,
  0x3d9644dbbc7514c0U, 0xbd90102ebda50b23U, 0xbd98e7e43d587552U, 0x3d80c951bb8f7af0U,
  0xbd29a23d3d36a74eU, 0x3c8e3b103d9ca675U, 0x3c42f9783c7ec4c0U, 0xbd9ae3da3da44bdfU,
  0xbc8865ecbd7807f5U, 0x3d8f16f33c604310U, 0xbdba371bbdbecd93U, 0xbd17c4aebd146ae3U,
  0xbd76fd46bd6e7c21U, 0xbd79dbfc3db4285fU, 0xbbce4f20bcd20898U, 0x3b12fac03d7cb3caU,
  0xbd9b2b983be28fe0U, 0x3d93c4adbcf84694U, 0xbd9814253d0b4d02U, 0xbd4620743db807d1U,
  0x3d3afa923d33ac7aU, 0xbdb7ac923cbe9238U, 0x3db0b401bcb92334U, 0xbc7e43983d8257edU,
  0xbbce8f203cf59688U, 0x3c612bb8bd326d7fU, 0x3d610cf2bd01a1bcU, 0x3d957a8fbd7faefdU,
  0x3c3821e03ae7e4c0U, 0xbd90f26fbd6c6f72U, 0x3d870f27bd4651c7U, 0x3d0446d23c88cb04U,
  0xbdbbb8f1bd0ad9bbU, 0xbd2086e13c98ee50U, 0xbd39b4263bb44570U, 0xbdaef34cbd492c07U,
  0xbce1abac3cd3a72cU, 0xbdafc38e3ce7ab60U, 0xbd45ee00bc8645a8U, 0x3d6b83923d6e550aU,
  0xbcf7111cbcc94c58U, 0xbc5ddb803d62fd6aU, 0x3d38a95e3d97bf13U, 0xbda97728bcf2d73cU,
  0xbd9b1b28bdbeeacaU, 0xbd71652cbbf91580U, 0x3c4df7f8bc632c28U, 0x3cef3db83d062196U,
  0xbbae1730bd734c66U, 0xbd143fe3bd624c90U, 0xbd9052bebd117addU, 0x3db5d403bd6b2ee3U,
  0x3d251f56bd4d4767U, 0x3b257640bb75f540U, 0xbd90e57cbd0dc73aU, 0x3d031002bd934587U,
  0x3d6bd58e3d62bc9aU, 0x3cf0979c3d696fe6U, 0xbc8419c83d936ee9U, 0xbc088c503c512b38U,
  0x3d9cc7333dbe39a5U, 0xbce972fc3d2b5c8aU, 0x3c316ae03d2e89beU, 0x3d8e31a1bd7a60e1U,
  0xbdb30790bbc4e840U, 0x3d680e763d3347d2U, 0xbbbe19903d7e9186U, 0x3daf20713d9eb8efU,
  0xbd1ebc1f3c4fc720U, 0xbd9a74bebd3299a7U, 0xbd428883bd72fc33U, 0x3db2885dbda7af59U,
  0xbb9be1503db9a235U, 0xbd2c9f6d3dae0cfdU, 0x3d762cd63d43c312U, 0xbcd6168c3db9f6c9U,
  0x3a651e80bdba5abfU, 0x3d8f91873daf9e83U, 0x3d67ab5abd9851e0U, 0x3d12f62e3cfa9d84U,
  0xbd32f2e33c962c60U, 0xbd9e010cbd242000U, 0x3d852a77bcca5238U, 0x3cb79a603c964d28U,
  0x3d0be422bd9c7578U, 0x3d4533aabd9db05eU, 0xbd1842973c98c924U, 0xbd9ec9d03d6bb512U,
  0x3c3b8b103d6d5c86U, 0xbd7b1cc7bd483be8U, 0x3d1c925a3dace67fU, 0x3d6ce3d2bda4e684U,
  0xbd8254623d9c2113U, 0xbd347bdb3d74af2eU, 0xbc9dd3603dbf47a1U, 0x3d8a8179bd27c4d3U,
  0xbd1733af3dad3a5dU, 0x3db061eb3d08b442U, 0x3d8c146dbdb2202aU, 0x3da8c49d3d8e3121U,
  0x3d81dc41bd6730ffU, 0x3d96cd633d4a399eU, 0x3d07f07ebd77676bU, 0xbd8fadc0bd3e9cdbU,
  0xbcdc9a583d01b3feU, 0x3da1dbe53d38df0aU, 0xbd890ce8bd72e90cU, 0xbd9cc94dbbb0a690U,
  0x3d0d34a23b542760U, 0x3befa2b03d127026U, 0xbda500f8bd56cd4fU, 0x3d9ac8813c02fa80U,
  0xbcb337d4bc588370U, 0x3b1a21203d75532aU, 0xbda2fce53db410bbU, 0xbd972921ba6b4c80U,
  0x3d17ce3a3da327cdU, 0x3d4bce4abd1edf8dU, 0x3c2ef868bd140ca2U, 0xbd979086bda803aaU,
  0x3b87b760bd855004U, 0xbd8a0dc7bd9172a8U, 0x3d8287833d8be16bU, 0x3d17c8cebce61160U,
  0xbc97de04ba6e6380U, 0x3cc05ba03c54a418U, 0xbdae0cf7bb92ad90U, 0xbc9da5643cc2b51cU,
  0xbbb7a6d0bc713be8U, 0xbd2cf786bcdfa6dcU, 0xbd9194d2bce6df58U, 0x3b2ecc603c892360U,
  0xbd0b88d8bc550ca0U, 0xbdb02a963da0d6bfU, 0xbcf563d0bda45eb0U, 0xbd009742bd269d45U,
  0x3db7d5bb3d3aa416U, 0xbc0c71e0bd955b6fU, 0x3cc7f47c3aa50ec0U, 0x3d637f4a3c13b168U,
  0x3d2de38a3cd91f88U, 0xbd958c16bd919dfaU, 0x3d48d712bdb9e2efU, 0x3dac9a93bd2c4f2eU,
  0xbc528760bd0f591eU, 0x3d45d20ebd9ef0c5U, 0xbbc93e303c019ea0U, 0x3d6e06aabd2614bfU,
  0xbda085a13c9acbe8U, 0x3bd7fcd0bdb15dacU, 0xbd7477f0bd16765fU, 0xbdb0d162bcb130acU,
  0x3cec5c50bd75d03fU, 0xbd843737bd513669U, 0x3c9b4ed43d8d25c5U, 0xbd5a062c3d9138b7U,
  0xbd88db8dbd0811e6U, 0xbcef59b0bc6593e0U, 0x3d94ab0bbc116398U, 0x3d406efabcf78f1cU,
  0xbdbf8ec53db77f8bU, 0xbc7a56c0bd14a68aU, 0x3c1a2b683c77efc8U, 0x3da2aa4b3d468516U,
  0xbd4f1e0cbd82e610U, 0xbda9e97c3bb60b40U, 0x3cbf13603d1716aaU, 0x3c3046b0bd76a045U,
  0x3d5d9b1a3d8e68ebU, 0xbd39470ebc2324c8U, 0x3d1aa8823d4ed85eU, 0x3d8573313bf21140U,
  0x3db1aa79bd80ffb5U, 0x3d4b997e3d35aec2U, 0x3d74609e3d943551U, 0xbd8b2210bce47ba8U,
  0x3d8612dd3d1d159aU, 0x3cbe0af8bb0fdd40U, 0x3db4b447bc662fd8U, 0x3cde8dd8bd90b954U,
  0x3beb8e10bd3d5093U, 0xbd89f2983d066aeeU, 0x3d7d3db2bd3af259U, 0xbc4ce5f83d7a2f9aU,
  0xbda8aa9ebd429747U, 0x3d1249163d9f7a5fU, 0x3c6ad9003d268162U, 0xbd9ad2dc3d9c70d9U,
  0xbd29ffa6bd7a83f4U, 0x3d0613163876a000U, 0xbc1907983d9b8dc1U, 0xbc78c3983bde3080U,
  0xbd2a2e96bc965c28U, 0x3c21adb8bc0d2220U, 0x3d4c39aebd0cd940U, 0x3bce1320bc9195ccU,
  0x3d9ed925bbfe1fd0U, 0xbd9705b93dbb827bU, 0x3d66eec2bdb288c7U, 0x3d6c986abc4492f8U,
  0x3d20883ebdb173e1U, 0x3db5aa3d3d2d6fc2U, 0xbd2c8fc3bc0e66b8U, 0x3b5e8480bcd3ce84U,
  0xbd9e19a63d6a8bc6U, 0xbd8d11c43d97e017U, 0x3c9985503c9fa684U, 0xbd15098a3c17f990U,
  0xbcc4ce4cbd5eae09U, 0xbc61387838d9b800U, 0xbce990dc3d9f4b8bU, 0x3d923901bd89868aU,
  0xbd58c5313c7b7350U, 0xbd84f9153db4d423U, 0xbdb08f1e3d9320d1U, 0x3d1daaf23c59be90U,
  0x3ba8cb00bdc0fda1U, 0xbca18184bd9969a9U, 0x3db4fef53db815edU, 0x3dad57e13dbc5af7U,
  0x3db9d443bd7dc048U, 0xbd5c53d13cb7e030U, 0xbc6d50203d220006U, 0x3dbe2bb53d588a56U,
  0x3c55cca03cf42208U, 0x3c2fbca8bd87534aU, 0xbda349583c609160U, 0xbc70dd303d955f53U,
  0x3b84cc50bc48e260U, 0xbda6da5a3dbd042dU, 0x3d94c819bdb7e568U, 0xbc4c9b103d44030aU,
  0x3d812c99bc23fa60U, 0x3c2808883d2b950eU, 0xbdbcee913d0ded72U, 0xbd0f8ec1bd288224U,
  0x3c7d7c68bd8ef081U, 0xbd3aedc5bd6936e4U, 0x3d9644edbbd99ad0U, 0x3a64df003dbaef6fU,
  0xbd81e2bdbda8d126U, 0x3db4e005bc5555f0U, 0x3ce88e78bc106eb0U, 0xbd1531f2bcb14f78U,
  0xbd7c0c013d9a6365U, 0x3c01fe78bd64c218U, 0x3d897f953d556b26U, 0xbd24850dbc97f40cU,
  0xbd69e2debd6fb7daU, 0x3d70d15ebd60194fU, 0x3cbe5354bcaba850U, 0xbd13d13dbd81935bU,
  0xbd5665323ca1f094U, 0x3d852b0b3ce0ab38U, 0xbcb179983b8461b0U, 0xbd94a184bdb5b950U,
  0xbcf70d7c3ce6d6fcU, 0x3cf5df08bc21ef50U, 0xbdac065d3d94d9b1U, 0x3aa56bc03d5ecf52U,
  0xbdb101ab3bd9ecb0U, 0x3daf7531bd0c1854U, 0xbc1cb0c8bdaf926cU, 0xbd102b91bc8184dcU,
  0xbdaa4d86bbb1a3f0U, 0xbcec9c783c808270U, 0x3cdf20743d2b77ceU, 0xbc15a920bc044180U,
  0x39901f00bda029a0U, 0xbdbb0ba2bd230d59U, 0x3d8172253cd44378U, 0x3d939a39bcd667fcU,
  0x3cb774a03cdd5c30U, 0x3d50bcae3d6fcca2U, 0x3af639403d3bd8b6U, 0x3d9d96e73cdd1024U,
  0x3d7d5f4abbf4fb30U, 0xbda582ba3d478ccaU, 0xbd8f561f3d82a325U, 0x3db3ca293da4006bU,
  0x3c4905f8bc2bdaa8U, 0xbda82022bc9c1c20U, 0x3d565ef63cd25dccU, 0xbd69c324bdb2caebU,
  0x3d4393b6bd54c0e9U, 0x3d4d1dcabdb7131fU, 0xbc5ee730bdb49a13U, 0xbd0fa3cb3d3d2d96U,
  0x3cbf5804bd79d1f0U, 0xbcb6c4d0bd0f3e64U, 0xbb54f2c03bb98b40U, 0x3da4e7e9bdbfb7bbU,
  0x3cf3d4e83d8c19b5U, 0xbdaebdd03d96f1dfU, 0xbc021d103d17dfc2U, 0xbb2cdc00bd64007cU,
  0x3bdc14d03d3bd032U, 0xbd0889a13c1d77e0U, 0x3d9ed7dfbb37d320U, 0xbd9529893cbd3a98U,
  0x3db512f3bd291700U, 0x3d915cf13d38187eU, 0xbd04efdfbd6fc540U, 0x3d1fec8a3d2b63c6U,
  0x3db65a49bdaf48beU, 0x3d115cbe3d5231f2U, 0xbd6e9b9ebc25e9d0U, 0x3d94d75fbdbd0371U,
  0x3bd5c380bcc832ccU, 0xbcc4cfdc3d800e6bU, 0xbd8ac5cfbd8010eeU, 0xbd0e55adbd4bc5fbU,
  0xbd80c8163da795b5U, 0x3ca66cecbc87a158U, 0xbc8029fcbb8460f0U, 0xbd43c5d63d69c232U,
  0xbcdaacccbd953b7cU, 0xbcf6d3803cbcec54U, 0xbd1208e93d766d86U, 0xbd9906a03d610e9eU,
  0xbd1499313d472312U, 0xbce7af90bd9e5386U, 0xbdc01ccd3bb65d60U, 0x3d8eed8bbdbd777bU,
  0xbd1df327bcd9a6a4U, 0xbd45738fbcb6f724U, 0x3d5cece63d1a56aaU, 0xbd8633f13cb91cbcU,
  0xbd38512d3d6623baU, 0xbdc09b7bbda07dc3U, 0x3d14b8debd89a311U, 0xbd6a949a3cdf672cU,
  0x3d349fd63bee37a0U, 0xbca137bcbc1d4970U, 0xbd3e1fd7bc729088U, 0x3d298eb6bc402948U,
  0x3d07a97a3d8c6f39U, 0xbcb19994bd911f31U, 0xbc842e74bd031e1bU, 0x3d9b41d3bd4b4299U,
  0x3c5cba70bcf2d4f8U, 0x3bf3c6a0bdbc2bb2U, 0xbd891f6cbd4617f0U, 0xbc497000bcceea7cU,
  0x3d84685fbcbe2dc8U, 0x3c6045b03d7ba0c2U, 0xbc3c38e03d31cc42U, 0xbbfc3ae0bce6bb58U,
  0x3d36e0323c851d7cU, 0x3da135dd3c27fac0U, 0xbda1223ab9b96f00U, 0x3d96a27d3dadcaefU,
  0xbb588ea03d8fac25U, 0x3cf7a0003d15c30aU, 0x3c94c030bcc7ab44U, 0x3d15f382bc9ab538U,
  0x3cf161543d6f45baU, 0xbd880d713d97080dU, 0xbd66aba2bc468ff8U, 0xbca758e43d8919ffU,
  0xbd24f2a4bd3581a8U, 0x3d87c7893da676e7U, 0x3d2b705e3d46e626U, 0xbd8e6ed53cae89dcU,
  0xbc4075283d2eb572U, 0x3cd234c03cf11150U, 0xbd97d86f3c883964U, 0xbdaa21f8bccdc940U,
  0x3d6d9896bd795c30U, 0xbc4d8e30bd3e2617U, 0x3cae3b2cbcda8794U, 0x3cc11d003d35a076U,
  0xbd6c62cd3cfac9e8U, 0x3ce2524cbdaba077U, 0xbd02d9debd561fa2U, 0x3d671afe3dbe9741U,
  0xbd93b6893d75351eU, 0xbd9547c93d03d342U, 0x3da0d2353d755baeU, 0x3db9154fbd9e134bU,
  0x3d61ee4e3d2e0d6eU, 0x3d96a6433cb07fb8U, 0x3d76459abd6b7631U, 0x3dba4ffb399bf600U,
  0x3cc157083d737c4eU, 0x3daa4239bd5d7ae0U, 0xbbd960203d972369U, 0xbd7ea228bdba7d84U,
  0x3d45731a3d87ee11U, 0x3c7b06283d65f5beU, 0x3c91847cbdaa7c12U, 0x3c9613603d111feeU,
  0x3cba556cbd04a6fcU, 0x3cd75ea83d86c23bU, 0x3b6b0c003c271168U, 0xbd6ecc2a3aa35b40U,
  0x3c37a418bdb84815U, 0x3d1e28223d157df6U, 0xbc9a1f40bd7938d4U, 0xbc53de80bc245ad0U,
  0x3d965b573ba49400U, 0x3c8a74103c54fea8U, 0x3dad4c253d19fcb6U, 0x3d8fc5d73dad968dU,
  0xbb0a15e03d88b7c1U, 0xbc8a7e4cba8c3f40U, 0xbb5e39c0bccd2074U, 0xbd3811713cccb150U,
  0xbcfdbe303c242ed8U, 0x3d7a1a823d82da67U, 0x3bc8a5203cd5b50cU, 0xbc9f12f43d86bb3dU,
  0xbd2bb16dbccccb08U, 0x3c949b403d5c9d22U, 0xbb7155a0bd4121f4U, 0xbdb585eabcb8e33cU,
  0x3c8164503cfc8664U, 0x3db90d31bd852d57U, 0x3d8bb8a5bccb5468U, 0xbcd64450bd921e0eU,
  0xbdbe2a56bce69bf8U, 0x3dbce461bd0393bdU, 0xbd125f1f3d20779eU, 0x3c4186303bef4e60U,
  0xbd9e9f1fbd0e59c7U, 0xbd82a3f2bd34b673U, 0x3d79cc76bdbf0b05U, 0x3dbfe3cbbd5fdfecU,
  0x3a28bf003db1cc8bU, 0xbda8a27dbd1e15c2U, 0xbd16c0dcbd043c16U, 0xbd5fc2b2bd6d5a79U,
  0x3d7c3cce3d3f4fbeU, 0x3c850edcbda81da2U, 0x3d7270babcee9778U, 0xbd8feac5ba634900U,
  0xbc43e7883d8eb863U, 0xbd6258afbd7b5161U, 0x3d9f3b21bc9d0b2cU, 0xbcd8cc8c3abf0a40U,
  0xbc99467cbd8d33b6U, 0xbd0f0bd23d73b476U, 0x3d5baa0ebb51db60U, 0xbc9772e0bc33dc88U,
  0xbd66de953cc87228U, 0x3d7d00ca3db64b5bU, 0xbca8328cbd367b31U, 0xbcd94d283c2d0bf8U,
  0x3dbb65a7bcca0930U, 0xbcc1a19cbb260000U, 0x3d750f76bd11ef3fU, 0xbc29a3683d3d2af2U,
  0xbc514c50bcf9590cU, 0x3b6b5a803dbaef1dU, 0x3db2e1f9bd093017U, 0x3d875de7bcfbdc48U,
  0xbd899630bd66f113U, 0xbd01767ebd47ac42U, 0x3c5b24a0bdb5c7b9U, 0x3d7ed64a3d319372U,
  0xbd29197a3daa222bU, 0xbb5371803d30986aU, 0xbd44f9903c6fe6f0U, 0xbd22d5f03daa24c1U,
  0x3da8b32dbd16f79bU, 0x3c3921903d9ea4c1U, 0x3a8e79c03d86c0c5U, 0xbd5f1a35bc8750d0U,
  0xbc48d5303c171660U, 0xbcaec6883d8991f1U, 0x3c141640bc6331e8U, 0xbdbd566fbc95f650U,
  0x3d577b923d354e36U, 0xbd4b6bc2bdb20ed4U, 0xbc864cbcbd59dcdfU, 0xbbdeaf50bdb31474U,
  0xbcb7d1d8bd651e88U, 0xbc46aec03d517272U, 0xbba17ba0bc9ddf68U, 0xbcbb45d43db84543U,
  0x3c812b303d87d507U, 0x3c03e7203cf75c8cU, 0xbdaf8a453d7c314aU, 0xbd6bba633d232e46U,
  0xbd8df8c9bd8ee57aU, 0x3cda8ba03c934228U, 0x3d2ebbeebdb9f1fcU, 0x3c8744ecbd82fdecU,
  0x3c86033cbd5675bbU, 0xbd2c0d043d3404f2U, 0xbd563ae7bd4d644cU, 0x3da836f13d8d5101U,
  0xbc6ccad03d4989d2U, 0x3d0de2663d85cce9U, 0x3d9ded6fbb377040U, 0x3d0e58523d0310e6U,
  0x3d2829de3d1f2a12U, 0xbd89175b3dabdae1U, 0x3d6dd03e3cd0a87cU, 0x3d302d02bc7ed7d0U,
  0xbd168dcbbd227f1dU, 0xbd42901bbd4d050dU, 0x3da30c1b3c8b1becU, 0xbcb91bfcbcecbca4U,
  0x3d780a52bd43dfc2U, 0xbd264263bd9ed4adU, 0xbb7ee2003d59db46U, 0x3c51aca83d25b176U,
  0xbd9a49bbbdc0a8b3U, 0xbd9a9c41bd6a0f1eU, 0xbd32c25e3d46fdf6U, 0x3db190f1bda8480bU,
  0xbd03eaafbda2a3f8U, 0xbb7fa820bc999e9cU, 0xbd024c223cfb471cU, 0x3dadd2dbbd552b08U,
  0x3d9c9ab1bd7aba1cU, 0x3d3c42ce3da7d11dU, 0xbd9f6b58bd1eb66aU, 0xbdaff9253ba1fd40U,
  0x3d1292cebd959e42U, 0x3d8d08a33d9f0303U, 0x3d1e9cbebdc08433U, 0xbd366017bdbaaf49U,
  0x3c9412a03d089bbeU, 0xbdb103b0bd984bd6U, 0xbda0e93d3d61db32U, 0xbdb8f7123d14cbdaU,
  0x3c7bb9e8bdb49906U, 0xbc07d8003db62a61U, 0x3db0cf49bd83d193U, 0x3cc17fec3da257e5U,
  0x3d4625b63da92467U, 0xbcfbffdc3cffa45cU, 0xbd2e6f0bbd674524U, 0x3b7d60403d9b2981U,
  0x3d3489763d9fc95dU, 0xbc15bab03daa3f35U, 0xbd0efb36bd970083U, 0xbdbb66aebd62ff8bU,
  0xbd41c6863c1fee38U, 0xbdbd254d3cafc734U, 0xbd9c04b8bd449672U, 0x3cb0dbe4bdc0306aU,
  0xbd6467783d8e2bfbU, 0x3d565b7a3d4ad826U, 0xbcaded9cbd603451U, 0xbd330c02bd686470U,
  0x3d4f76523d3320faU, 0x3c973d6cbd99c16bU, 0x3dbcb41d3bcf1420U, 0x3ce6bc84bd3c7edbU,
  0xbd92fa063d8292fdU, 0xbd78c6b6bd92603eU, 0x3d99c439bdbdea21U, 0xbd38295cbd526058U,
  0xbd03d81f3d8f5551U, 0x3d5bb8463ce980a0U, 0xbd092beabcc6dc8cU, 0xbce6dde0bd17a5ebU,
  0x3d14b04abd0ababcU, 0xbcd49ef03caba284U, 0xbdb354b7bd107a59U, 0xbd0086543c0aba80U,
  0xbdb0ba84bd25d9baU, 0x3c7e8070bd1b9456U, 0x3c8a4f20bdbda831U, 0xbd8bb0df3c93aa14U,
  0xbd9b7027bd9538c9U, 0x3cd792e0bca21e3cU, 0xba9b00403c2d4828U, 0xbc99ef443d8e4673U,
  0xbcc9d5e8bd1889afU, 0x3d89bcc1bd5b1611U, 0xbd219367bd951b77U, 0x3db8e0cdbd566781U,
  0x3d0cce06bda9bd70U, 0x3cad470c3cd81b50U, 0xbdaaffe7bdb4162cU, 0xbd01a38cbc471320U,
  0xbc4b54c83cdd95ccU, 0x3d8b30f73dacdb65U, 0xbda6f18dbc678898U, 0xbc984ab43c991764U,
  0xbcf59104bd71dac7U, 0x3dc119cdbb8222b0U, 0xbc89799c3db641c7U, 0xbd53910dbc371c20U,
  0xbc41c840bc141f50U, 0xbca8b9e8bd664ddfU, 0xbdbf3c793d96dc51U, 0xbd9b86053d852583U,
  0xbd751ffabdae9bf4U, 0x3c4bbae03d8461c5U, 0xbd446d613c9d1ab0U, 0xbd3cb8dc3c806de8U,
  0xbd2978aebc103ed8U, 0x3db60de33d4b49b2U, 0x3d9a56093da8e16dU, 0xbd3996bc3d85bdfdU,
  0xbd7beaa0bcf026e8U, 0x3d9da23d3c4d3d40U, 0x3c4c69203c969994U, 0xbbdefda03d26440eU,
  0xbbf6a4503c11bc80U, 0xbcae4e0cbd7865d6U, 0x3d08c4ee3d9abf2fU, 0xbd98f80abd6d35f5U,
  0x3db026353cc52534U, 0xbb7c5be0bd384831U, 0x3d4ea25aba90f600U, 0x3d8622e13d7af1deU,
  0xbd87b5f43db296dbU, 0xbd973742bd224fdeU, 0xbd9e5a9c3db3f14bU, 0xbcc801e03ca53ef4U,
  0xbcb9f3dcbd99d014U, 0xbdbb5a9e3da260fbU, 0x3dab15c53d3dc166U, 0x3cc3be3cbcbade08U,
  0x3d91f5cdbd2654cfU, 0xbd5ed0553d4c7202U, 0x3c6eaf90bd67d9a0U, 0xbd8c1ba7bc5f0de0U,
  0xbd170300bd25d515U, 0x3c0063b0bc46e348U, 0xbd94fbd8bd740effU, 0xbcc98b6cbd88ba93U,
  0xbd8709843cf9a364U, 0x3ca82d983ce76ba4U, 0x3da4ecc5bd083fcdU, 0x3d6f05a63c3e8db8U,
  0xbdb73ae03be15430U, 0x3b6dcca03d9cdcb1U, 0xbd679b5b3d87c6cfU, 0xbd89427d3cf0bb44U,
  0xbd5d6210bdbbd451U, 0x3cc96510bbf90510U, 0x3cec65003d6294b6U, 0x3ac42b80bcef64f8U,
  0xbc5f6bf03d8e1277U, 0x3d85e06d3d1c6aa6U, 0x3d949919bcf97e68U, 0x3dbd15013db35b0dU,
  0x3dadf3353d08259aU, 0xbd687a8abd9e9cb7U, 0x3d2782123d33e3feU, 0xbd9f8c393d5fafc2U,
  0x3b08bda0bb688160U, 0xbcc44c243c5e1da8U, 0xb993df00bd740615U, 0xbca56af4bd688c90U,
  0xbc8eb474bdc08a34U, 0x3c0eb7903dbe858fU, 0x3d13a302bd23d8acU, 0xbc391c78bd914802U,
  0x3d835df5bd5e2eb0U, 0xbda5428ebd5b415aU, 0x3c2e3a18bd7ad5a3U, 0x3d8958d9bd959b0aU,
  0x3cd6f9fc3c95f0a8U, 0x3d10e466bdbce1b3U, 0x3d95acc33d3ef8ceU, 0x3d36003abd515ce2U,
  0x3d5b598e3d306582U, 0xbd96954e3d82fdfbU, 0x3c16bb983cc4c88cU, 0xbca662ecbd3dcd06U,
  0x3d6b802a3cd951a0U, 0xbc0662603b9c0a10U, 0x3ce8e298bd429167U, 0x3db9659dbba18dc0U,
  0x3d90ce0dbdaff09eU, 0x3dae59a33a7c2280U, 0xbdb0cf4f3db202e7U, 0x3d1f3946bb3fac20U,
  0xbd06ecc03d2f79eeU, 0xbd98ca0a3d216256U, 0xbd8e95abbcc7c998U, 0x3bcb53a0bc3a5af8U,
  0xbcd65fe83c2c8998U, 0x3db7313dbc26f688U, 0xbc97aa68bd88c9a6U, 0xbd17a7edbd158b7cU,
  0x3d62aa0e3cdd0de0U, 0xbcf34618bc0e8830U, 0xbd0d6c83bce27f58U, 0xbda17cb03d8e3e1dU,
  0xbd04fb2bbd9dffb7U, 0xbc86e2f03cd47ef4U, 0x3da15113bc939fccU, 0x3dbcd9ffbd99a284U,
  0x3d4672a2bd6de501U, 0xbdac0bfabcab6ef4U, 0xbd44c4653d1f2f7eU, 0x3d3a785e3cd1f2f4U,
  0x3dabcf18bda98b90U, 0xbcda15463b970db7U, 0xbd8055e33c516ae1U, 0xbd46dbc03c2cd9a4U,
  0xbd92d772bd81940bU, 0xbc93e8423d67525dU, 0x3cdfd874bdb7b0fdU, 0x3d3d0085bd844a42U,
  0x3daa3d2f3cb4121bU, 0x3c8fc624bcbdcc29U, 0x3b0d50ab3d0b6189U, 0x3cb15295bc8bcafcU,
  0x3c5a5379bca2b5c2U, 0xbd4495ca3da2e2ccU, 0xbdb082a1bd98f418U, 0x3cacf57dbd212d46U,
  0xbddc42eb3de19333U, 0xba355ed63da12e71U, 0xbd80cbe73db57bbbU, 0x3ccdd98d3db41d00U,
  0xbd2a27933dc6b575U, 0x3d84bd68bd02908cU, 0xbd362bfe3c7bb572U, 0xbd64856e3d44feecU,
  0x3dd9be393db43878U, 0xbd02a9193d0e21f1U, 0x3daf97523c687cdcU, 0x3d9a4a603d958525U,
  0xbd91a1573cd08e61U, 0xbc4d96d73dbf736cU, 0x3c7472b1bda2a7eeU, 0xbd347e373d25ab9aU,
  0x3dd9f1083d70a244U, 0xbd37deba3ce76425U, 0xbd5a7a9e3d495d3dU, 0x3d9a4a323dae6bf7U,
  0x3d35e0fe3b8cbba5U, 0xbd9f6f1dbd8a5678U, 0xbafb3768bd81472dU, 0xbb377f46bc968e65U,
  0xbe05e4c8bd2084b3U, 0xbd38766b3ce975ebU, 0xbd41f8a4bcc09c9dU, 0xbd6b4410bdad2a70U,
  0x3dd02718bd7308feU, 0x3dcc39dd3de6c044U, 0x3b9fcf3b3c07b1d9U, 0x3dc045c8bd1c9882U,
  0x3d509347bc82ebdbU, 0xbe12c9e83c75f6f1U, 0x3df7b9603d0452efU, 0xbce2d9393d440594U,
  0xbe1dce5d3db9ff31U, 0x3d87d2223d844bc1U, 0xbd55123ebd357df1U, 0x3b436d24bc07526cU,
  0x3de533b0bd05a4a7U, 0xbc4e6e103d751650U, 0xbe109d963e07dfa8U, 0x3de5f0723cbbb795U,
  0xbdd414863d5fcbc1U, 0xbdb8993ebd12d445U, 0x3d93bf2e3d9a86e0U, 0xbcc29de13db6f233U,
  0xbde42a16bd0aed79U, 0x3cd716123d29ac9fU, 0x3d2a77fd3d92a338U, 0xbe1d87bebbb77ae0U,
  0xbd1a45be3cc4b593U, 0xbd5669fabda29bfeU, 0xbdd51a983d8008b3U, 0xbd1fc8613dc259d0U,
  0xbda931a7bcf2901aU, 0xbdcca1b1bda00eeaU, 0x3d810234bcdfb1e2U, 0xbd8ad1c4bb4bac5bU,
  0xbdf8d6193d775966U, 0x3d2b22203c545365U, 0x3ccd6575bcdec896U, 0xbdcf70e33d3c278eU,
  0xbc9899fc3dbc33aaU, 0xb9c39618bddae443U, 0x3bf48fb13cdc3ae6U, 0x3ced48c5bd1ab02cU,
  0xbcb4e3b43d85cd00U, 0xbe0d3ac7bb1d79f1U, 0x3db970153d02d2e2U, 0x3d86a5293c49ae7fU,
  0xbdcabfb9bd4b3fb1U, 0x3d5a281dbcf5b42eU, 0x3b09312d3d16cc99U, 0x3c095cae3c9e02e6U,
  0x3cb4a6adbc4a2123U, 0x3c87c4ef3d0999d4U, 0xbd4680debccdd5ddU, 0xbd86eab43d03531bU,
  0x3d9d65383d0ab069U, 0xbdf2c4a9be0246aeU, 0xbd5fb97abdae3268U, 0x3c049b99bb040279U,
  0xbdac7761bc6524e5U, 0x3d9f8b913d81c60cU, 0x3c296be8bd049bcdU, 0x3cb22633be26549fU,
  0xbce3d948bdb84199U, 0xbc9ab05dbc0958bdU, 0x3dadcc44bdb3f188U, 0x3dab30f0bd70ecb9U,
  0xbd809918bd3ba523U, 0x3c912032bda3c1dfU, 0x3c20f6ac3d90ba0fU, 0xbbc2995a3ce7389dU,
  0xbd855041bd9d8e49U, 0xbd32974cbdb8f287U, 0xbdaf5407bcdaad80U, 0xbd0d7590bd0ca6caU,
  0xbce77bfcbd5a0dc5U, 0x3b7baf8b3da8db12U, 0x3c59016dbd927032U, 0x3c9600b4bd94272aU,
  0x3d341a1abcf05b1dU, 0x3dd289c1be04ce84U, 0x3c1a18c3bd8ede2dU, 0xbda5b280bb883d90U,
  0xbc80b76f3d1ded52U, 0x3d8c8f8fbc9cc94cU, 0x3d834fc43cc810aaU, 0x3d6f08483d2f6083U,
  0xbd8be8273a101389U, 0xbd8cc6b33d0615bdU, 0x3da5dedb3d3d64c7U, 0xbdc890a5bdd89d2bU,
  0xbc5918473cf15160U, 0x3c1349f83d62c8d5U, 0x3d41eb2b3da1f657U, 0x3c9f7fcb3db34160U,
  0x3de716143d722283U, 0x3d89f0de3cd783f2U, 0xbd17e3703d5174edU, 0x3d4e131dbd348c5dU,
  0x3d61beb3bca20579U, 0xbd41c9dbbd16753fU, 0x3da29fedbd074ccdU, 0xbd88280c3c25ead1U,
  0x3c81ff5e3c9b0d50U, 0x3d559d2bbd74da6aU, 0xbd88d409bda5f2e7U, 0xbd132db2bb663511U,
  0x3d4420b3bdd7f9b4U, 0xbd85df76bb528576U, 0xbd73971d3cec44b8U, 0x3d067f9ebd8bf562U,
  0x3c0d55a1bd3a5ad9U, 0x3d935fbdbdab2027U, 0x3d9f347fbd09ac58U, 0x3d0eaeb73cd6902bU,
  0xbcf73815bd94a49aU, 0x3e031eca3d73fca7U, 0x3d683e94ba979daeU, 0xbd208bf0bdaf98b6U,
  0x3dfb9c233cad8f6dU, 0xbd9914223d48329eU, 0x3da814fc3d5bbb20U, 0x3dbe62da3d4710ecU,
  0x3a3562aabd13bd20U, 0xbdbe19af3db2f9c0U, 0x3d9134ab3d9eeabeU, 0xbdcb6005bda6e778U,
  0x3c92e4e23c54f3a8U, 0x3d6fbe0b3bfd1337U, 0xbd7d101e3d1c2c1eU, 0x3d6b434a3bea329cU,
  0x3cfeb450bc220069U, 0xbd93d5393d9a7664U, 0xbd060b3d3bb6c314U, 0x3cb45f9f37901076U,
  0x3d36a1d9bdd18611U, 0xbd3cdfec3d60e8b5U, 0xbc9c386dbab00956U, 0x3d060f7f3d9c3250U,
  0x3d5ee9a3bd43630fU, 0x3d3cd410bcdf0ef4U, 0x3d69be173daa838aU, 0xbc8edf83bd53ea0eU,
  0x3e067c743d10c3fbU, 0x3a2deb103cd67e14U, 0x3bb7bc953d7e7e2aU, 0xbbe0c52a3d44e137U,
  0xbc0971ba3d9a8465U, 0xbd7c25ba3d67c5aaU, 0xbd0f96fbbd632f28U, 0x3d42c015bd0f31deU,
  0x3d9a449fbdac1f69U, 0x3cab1e6abc8be206U, 0x3d5d4f4fbce6f1c1U, 0x3d515c35bd7f27b0U,
  0x3e008d0cbd2fade8U, 0x3d8ddae13dbb739aU, 0xbd58572ebd5f74e6U, 0xbcbefc25bb554901U,
  0x3d95c629bc832033U, 0xbdbec7c5bda6a7ccU, 0x3db13db13ddc02e7U, 0x3dadeb263dab7b1aU,
  0xbc7f2e963d8d33c0U, 0x3da71012bc5f3111U, 0xbd497b74bdacdbddU, 0xbd9378dabd3f4f98U,
  0x3dd19086bd099202U, 0xbd507694bd6cba74U, 0x3da901143cd9bc37U, 0x3dedda8a395890cbU,
  0x3d80913abd931280U, 0xbdaa64333da6e231U, 0xbd1033283b7bf8c8U, 0x3d735e463db73956U,
  0x3c514d8dbdae15efU, 0x3d72a0f6bd456028U, 0x3cc72db53d08ab70U, 0x3b9c8793bd3c3592U,
  0x3db53f74bd5636d2U, 0x3d478edfbd7cdfe1U, 0xbdafc7bd3d576112U, 0x3dbbfe143ce65423U,
  0xbb366a56bd3a40feU, 0xbd86b524bdbc5b5dU, 0x3db7c802bd1c1495U, 0x3d6ebedbbc1e3230U,
  0x3d9d8efc3da0ba09U, 0x3cfdbc94bd686660U, 0x3da90ae03ac01cacU, 0xbd98bd7d3d9fc10eU,
  0xbd8690383da0bef5U, 0xbbc9ebfa3db10447U, 0x3d862f71bbf3d2c1U, 0xbd89913d3d846471U,
  0xbb97779cbcd09864U, 0x3d3f07313d9a5d6dU, 0x3b2b622c3c6232c3U, 0xbd923f71bc05266eU,
  0xbd4367653b561a0dU, 0x3b29c4f4bc944e6aU, 0x3cbd98953d8f0484U, 0xbdce1008bda91d1fU,
  0x3d34ce1ebcc98fc3U, 0x3ba07c6e3d64e5adU, 0x3d4ac18bbca0d7b1U, 0xbc64d8783dd2e186U,
  0xbda5f6c13d421d39U, 0xbdb446133d1e6908U, 0x3d8de4863d936698U, 0xbccaeb1f3da62558U,
  0x3d57d331bbf304d7U, 0xbd4acc9ebda94127U, 0xbd9301a43d8b73afU, 0x3c9a1b2f3d189619U,
  0x3ad61babbc633e4bU, 0x3db7139c3d19f268U, 0x3cf363553d99e13fU, 0xbbb303503d6a1a0eU,
  0xbd098893bd467e34U, 0xbdb3a19dbcc43c76U, 0x3d583ae2bd3ac9f4U, 0x3db8a4fb3d443365U,
  0x3d2a0775bc1beed5U, 0xbda7e7223d7ef574U, 0x3d23b0f13ccfb65aU, 0xbdcef55f3b1a9c0fU,
  0xbcd5516b3cdac0d9U, 0xbd82994abb4b7c5eU, 0xbcd687793d2d86d0U, 0x3cd551f4bd15e718U,
  0x3dbbd537bc3b91a9U, 0xbd4c7e19bc394540U, 0x3d51ad96bbf9bf4cU, 0xbd6c3501bd48798bU,
  0x3d56385f3b6104f1U, 0xbc88198d3d9350a0U, 0x3d247fa73d631af1U, 0xbd44b49a3d4d5fedU,
  0x3c0350073bf776c3U, 0x3d431b313c801edfU, 0xba4fcd703d9694fdU, 0x3c5060093d3b816eU,
  0x3c8d002c3b853c21U, 0x3c5f2f89bda209c1U, 0x3dabf04b3b3566ddU, 0xbda88cadbc4b85edU,
  0xbc1afc6bbd32b5c7U, 0x3d712e4b3d80877fU, 0xbcd229febd052443U, 0xbd9d80babd87a687U,
  0x3d5e3b03bc86f032U, 0xbcdb89993d14391dU, 0x3d49cd393cab1010U, 0x3dbf8d8d3d3215caU,
  0xbd716b823b1bae5aU, 0xbddf80c3bcd2c20bU, 0xbcc0baaf3d1c817cU, 0x3db9fed1bd9e898aU,
  0x3bc97ffb3d02d411U, 0x3c724f303d3a7919U, 0x3c26bbe7bd9eed01U, 0xbd75863c3d4050a1U,
  0xbdb1ff173d8710e6U, 0x3d83082b3dac5aedU, 0xbda341eebd16f029U, 0xbda1723a3c86b0fdU,
  0x3daf6a84bd3b37a6U, 0xbdababcbbd92b49cU, 0x3d4c7feebc082743U, 0x3cd98f763cb21697U,
  0x3db9e9abbd79c2cbU, 0xbd56ae6fbd0bd6d9U, 0x3da5cc433d8a18a1U, 0xbd807091bd532c5bU,
  0xbdc0635abd70c362U, 0xbdae4f3c3d0e2a72U, 0xbd64683f3ce2089cU, 0x3cc07f343bf59c50U,
  0xbc3cdb88bdac2e80U, 0xbcdec1ecbd13ec63U, 0x3da4d7773d246ac6U, 0x3db11e213cdc6e6cU,
  0x3d44e5223d746d46U, 0x3d2576b6bd9f5feaU, 0x3cae620c3d90f9d3U, 0x3cb06480bdb9dbeeU,
  0x3cfddd14bd2b0395U, 0xbd6d449b3dade56fU, 0x3b7ae880bda7b0f7U, 0x3b4610e0bd1a6292U,
  0xbda105d1bd990506U, 0x3d3b92d6bdb38329U, 0xbc7752c8bd4dc7caU, 0xbd296c153db2af27U,
  0xbcee6b5c3c93c9d4U, 0x3ce5a2a4bc009fc8U, 0xbb0235003d2d99c2U, 0xbda425e6bd9b9023U,
  0x3dbad32f3dac9acbU, 0xbdb757ea3c321c70U, 0xbd3a5ba53da70cf9U, 0x3c7c9878bd9868afU,
  0x3d2cde263d978f95U, 0xbd11cb653d58976aU, 0x3cc52bd8bd108ddbU, 0xbca8a7383dac7921U,
  0x3d1a775ebd44919cU, 0x3bf22870bcb91f3cU, 0xbd52ad6ebdb8f89dU, 0x3ce1162cbd809301U,
  0x3db8fc913da869fdU, 0xbd86780dbdab13c7U, 0x3d93044bbd9ef1e6U, 0xbcae27e0bd143601U,
  0xbda0159cbd012e64U, 0xbb8c78e0bc57bbc8U, 0xbd8e4cc2bd5884f6U, 0xbba5cfe0bdb86622U,
  0xbcc69d6c3da36863U, 0x3d18b89a3d1847a2U, 0x3ce187a03a84c140U, 0xbc81baf83db77645U,
  0xbdbd48a63cf8d5f4U, 0xbc678ac83d3b6636U, 0x3d066ede3d5c0b4aU, 0x3ad4bb403d7cc836U,
  0x3d7d5b123dc0668fU, 0x3db6787b3d395c6eU, 0x3b0468803c06f428U, 0x3ba59c603db381f5U,
  0xbdbda4e9bcd780b8U, 0xbd37d1d43d930681U, 0xbd205d693da1be49U, 0x3c2a20703c7fb908U,
  0xbce0f8683958de00U, 0x3da499edbd375939U, 0xbd577102bca94070U, 0x3d8452393daa4725U,
  0x3ac69d40bcaa8760U, 0x3db77acfbd26bf85U, 0xbaf83a80bd1a583dU, 0xbce5bbd8bda0696eU,
  0x3be01e903d6c56d2U, 0x3d902dbd3d96d4b5U, 0x3db5fc69bdbe924cU, 0xbd9592c6bcba6638U,
  0x3cbdcdf83d0e67d6U, 0xbc8767bcbd97a1ddU, 0xbd9cd5dc3c9721a4U, 0x3c938148bd44ae3fU,
  0xbd6741583c4bd5a8U, 0x3cf3e864bdb94e0fU, 0x3d2737a2bda79631U, 0x3d86a133bd7e3ad8U,
  0xbd78009fbd85b71aU, 0x3ceafec03d8da5bbU, 0x3dae2d63bcc67280U, 0x3c91b5743d10548eU,
  0x3daa2e093dbc6ba5U, 0xbd8d83e2bc8dc698U, 0x3d9acef1bce2e51cU, 0xbda1f13e3d79aeeaU,
  0x3dbc6b23bd784561U, 0xbd9781e4bd382bb2U, 0x3c613980bd3b716aU, 0xbcc7e7d83d27db52U,
  0x3cb7fc5c3d93c865U, 0x3d8c7e61bc8b904cU, 0xbdb36cbabdb08115U, 0xbbcfb270bd8655d0U,
  0x3d16a0ba3db6b66bU, 0xbd80e4cc3a61c080U, 0x3c4c7c303da6188bU, 0x3dbd8091bdb2a887U,
  0xbbdc22403ab513c0U, 0x3a8937403dac7829U, 0x3d463feabc19bcd8U, 0x3d4bcaa63d8b0c69U,
  0xbd74aa403d542b6eU, 0x3dc087f93b315e80U, 0x3b1302403d9ec70dU, 0x3d47422a3d0b378eU,
  0x3cde5de83bf371f0U, 0xbdb386c2bcb9bd3cU, 0xbd3655f8bd9c712aU, 0x3c9dfd14bd835c67U,
  0xbd4d3f383d2ab2deU, 0x3b8b6e703c659958U, 0xbdba4a46bd53de29U, 0xbd80dbf3bd88c9acU,
  0xbd96a4b23d57015aU, 0x3a157f80bdbfe7fdU, 0x3d89a1f9bc6b1440U, 0x3d83b1613d50c2f2U,
  0x3da968013d706ca2U, 0xbd7fba1f3db282e5U, 0xbb8baef0bd3155bfU, 0x3dbba1693bc666f0U,
  0xbd5923303c410d88U, 0xbd6fb9abbcae34fcU, 0xbd68a8babdac1c02U, 0xbda22c0cbbdfa0e0U,
  0xbd8915d93c77f7a0U, 0x3caf196c3ca751c4U, 0x3ca328a4bd1610d9U, 0x3d98f0893d30182aU,
  0xbbc7a1b03db9703bU, 0xbcc25eb0bd442e30U, 0xbb27f9603caf42fcU, 0x3d163e8ebd84456dU,
  0xbca4a16c3da7fc11U, 0xbca2e0bcbd66df14U, 0xbd8999623bdd57b0U, 0x3c0cc7303d97df43U,
  0x3d8838813d555b52U, 0xbd900c0abd575cadU, 0xbda567a6bdb79974U, 0x3cf5196cbc67a240U,
  0xbd28b16f3d6442e2U, 0xbd4a047ebc89f7d0U, 0xbd8e17da3d14f236U, 0x3d9f45b3bd85fa5dU,
  0xbc9a6e743cf539e0U, 0xbcfff0783d00d67aU, 0xbdb215c9bc889e64U, 0xbdaf1342bdaa2aa0U,
  0xbd3ab3e9bc99958cU, 0x3d33a476bdb07d76U, 0xbdb277c2bd334596U, 0x3d9d7a9fbda2066aU,
  0xbc9d86dcbd82de96U, 0xbd454ebcbbf2b720U, 0xbda411973c3d0e30U, 0x3d300dfe3b923ea0U,
  0x3b528720bd12d3c3U, 0x3d5bd9febd883b6dU, 0xbdbd74823da184f7U, 0x3cb71b30bce9e0b8U,
  0x3d4cf87abcf86648U, 0x3d1b42ee3d7f5e5eU, 0x3c08c2603d4bbf62U, 0x3a579a803c1363f0U,
  0xbd51f75b3cccd1d0U, 0xbd87a9ccbdbe91e9U, 0xbdb24191bd45d8b3U, 0xbd6d850cbd94db52U,
  0x3d86ad5f3d52520eU, 0x3d815679bd898724U, 0x3c6769c0bd82eef2U, 0x3d1af3823d8cef4bU,
  0xbdb2d7533d860a53U, 0x3cca1258bc7ee400U, 0x3c7bda703d3f6156U, 0xbd4612113d206ce2U,
  0xbd78601b3c83a02cU, 0x3bf53da0bd0585d7U, 0x3d7599e63c953108U, 0xbd10121d3bc3cf10U,
  0xbd69fd373d22c1d2U, 0x3cafa2ccbdbb09e0U, 0xbd83810cbdade77fU, 0x3d993ef7bdb3f630U,
  0x3d85c605bcc38e20U, 0xbd240455bd0570dfU, 0xbcc0de28bd63a72fU, 0x3a221500bd988ccfU,
  0xbdb4c259bae1c800U, 0xbdbd779c3db50201U, 0x3d0a7556bd96ca5aU, 0xbd11dc543d9298f9U,
  0x3ca8dcdcbd9fbc30U, 0xbcb47b743da9e887U, 0x3d876f793d878097U, 0xbdadbc18bc99cfb8U,
  0xbc55bd883c9bb344U, 0xbc4f8d60bd2a8723U, 0x3b7cb2003d253512U, 0x3da3c277bd3cc324U,
  0x3da583093c6ac120U, 0x3d84f6a7bd973976U, 0xbda6d9e7bd9a17baU, 0x3cdcd24cbdad7af5U,
  0x3d919c43bd846af4U, 0x3cd05f80bc882a00U, 0xbd14017f3c5f0a30U, 0xbd167b5f3d955e75U,
  0x3c5becd8bd95ff52U, 0xbd946012bdb10e5cU, 0xbdbcbff83d29041aU, 0x3d5bf02e3d97ef07U,
  0xbd99ff503c074580U, 0x3d8c58373d2d9616U, 0xbd133d39bd09c2f8U, 0xbc377868bc830684U,
  0xbd32ade4bd9eab69U, 0x3ca888903da854fbU, 0x3d946cc7bdadf0e5U, 0x3d594602bceb1f58U,
  0xbd773448bd8d2bb4U, 0xbd9e9ed63d0ad0b6U, 0xbc17f7503cb417f8U, 0xbdb6dbf3bc554588U,
  0xbc9565b83dbf098fU, 0xbd3de3443da7591fU, 0xbd81eda9bce99cb0U, 0x3d83fbc53dbe1277U,
  0xbcda93783d8ed0adU, 0xbd0d3fdc3dbd59cfU, 0xbdaffc6fbcc8a8d4U, 0x3d0de61a3d127f2eU,
  0x3c9658403d38a20aU, 0x3d503012bd8d041fU, 0xbd8e5994bd151afeU, 0xbc22d9f03d4fadfaU,
  0xbb90c5f0bdb0cd66U, 0xbda5b8183aa7c6c0U, 0x3d8464cbbdb86c99U, 0xbcb810983d68696aU,
  0xbced43e8bda8ba05U, 0x3d6001ea3d8b5d4dU, 0xbd8da2083d4120a2U, 0x3d9df0b3bc487ae0U,
  0xbd1d6b13bd1526dcU, 0x3d58f54e3d05023aU, 0xbd288a653d7fe60aU, 0xbb336940bd728c9bU,
  0x3d63b79ebd9dfa29U, 0xbdaac9683d86b173U, 0x3c3360703db3ed23U, 0xbc87d8a0bd130985U,
  0x3dbd5c85bda7e22bU, 0x3d59003a3d204126U, 0xbd2584e2bd941fa4U, 0xbd2c4e0c3b0cae80U,
  0xbc35ab083c390570U, 0xbcd2c07cbbc3bc90U, 0x3dbdf71d3c74fc20U, 0xbd736457bd843682U,
  0xbcf394983daf6efbU, 0xbcc869a0bd8fe0a0U, 0xbc894808bd60f7a6U, 0x3da3e739bba5e740U,
  0xbbbd5190bd81c026U, 0xbb01efa0bd356f30U, 0xbd1435f5bc6eb008U, 0x3d923761bd567f30U,
  0xbd9b2be73d9d8cb3U, 0xbd7655f73d853f13U, 0x3c13c0e03ce9f2d4U, 0x3ce3b9acbc9b89e4U,
  0xbda80aa5bc31eeb0U, 0xbd574aba3d65221aU, 0x3d1f5bce3c2c68c0U, 0x3d3039b6bd459aedU,
  0x3d742d5abc8437d8U, 0xbd868afe3c1e1e78U, 0xbd93aaa9bda86456U, 0xbd61e936bd3ed76cU,
  0x3d0919163c865a74U, 0xbda26e003d6c17caU, 0xbd11355a3d49ba26U, 0xbc76a758bd284bbfU,
  0xbd381f383d5d347eU, 0x3d9309133aaa0600U, 0x3db326e5bd3e88c2U, 0xbb4808603cd484e8U,
  0xbd5a25673d16eabaU, 0xbd87a6693d6c6b46U, 0x3daf89c33c490530U, 0xbdbceb56bd305ac6U,
  0xbcc5e980bd7f9bb7U, 0x3dc091213daa1cddU, 0x3c6bf1b03d820c5fU, 0x3cc0c4503dbc25dfU,
  0xba1c55803c94f070U, 0xbc2cb9c8bc0a8d98U, 0x3d193ee23c9964dcU, 0x3d0c4aa23d0ccdc2U,
  0xbc439aa0bdba5440U, 0xbce49cc83da6d267U, 0xbda0a4d9bd89d058U, 0x3d36a3ee3da8f45fU,
  0xbc0802f7bd8df969U, 0xbcbcffe53d10c3e2U, 0x3d4ed47bbd8a0814U, 0x3d1b44963d0bf26fU,
  0x3bc71156bd9fbe36U, 0x3ca32c34bbab41b2U, 0xbd5a7eb23d9cc81eU, 0xbd24f2d43db92a88U,
  0xbda4041f3d2373a7U, 0x3da6bffc3d701b3fU, 0x3d431f293d5d36a3U, 0x3d7e7815bc928db9U,
  0xbd1cfb50bdb1d8e2U, 0x3d7790b0bce67654U, 0x3db6e1b73d031759U, 0xbd18b4903d6de397U,
  0xbd2c789dbcaa45ecU, 0x3db52287bda02146U, 0xbd5d86663c1c7dc4U, 0xbda0455c3bd4100eU,
  0xbd767279bd1a2008U, 0x3da050a9bd8dbef6U, 0xbd937a523d90f542U, 0x3b59ffca3c84b2f5U,
  0xbcc3fb0b3ca68c5aU, 0x3d59431f3d9024c5U, 0x3ca6fc5a3d8150eeU, 0x3d4fcfa6bd847032U,
  0xbc8989bdbcc506ccU, 0xbd85efefbc2f9376U, 0xbdafb7d4bbf4f5c9U, 0xbd954b93bb0ad96bU,
  0xbd82ab47bd12fdeeU, 0xbdb231debd2cd963U, 0xbd8593f5bd421964U, 0xbd8b829cbda6a13cU,
  0x3dad78623c850bd0U, 0xbd5b8230bd2df071U, 0x3d8daf493d396e40U, 0xbd19f24b3bf25fc6U,
  0xbb270526bcbdf282U, 0x3d904817bd705f2dU, 0x3cc38a603cdcadb3U, 0x3d9c5d49bdc25da8U,
  0xbd994d58bad8a8d2U, 0xbcc0b246bd48f661U, 0xba9f919abc10963bU, 0x3d11e3983d3ef7fbU,
  0xbd554125bce3d65cU, 0xbdabf1c43d98fd4dU, 0xbb371266bda0b11aU, 0x3baf13bebcc4d157U,
  0xbd4436ea3d688edcU, 0xbd53cb493ca87cc5U, 0xbda7d302bd674ce4U, 0x3bbce03cbba9a07eU,
  0xbc4324f23d64fe22U, 0xbd90e1d1bda8322dU, 0xbdb857d63d9fe3b5U, 0x3bfd9f123d9a4089U,
  0xbc8b8db63d2765ccU, 0xbd944524bd5aaf99U, 0x3d17e93ebdb8a22bU, 0x3d8eaca43aa3c2b6U,
  0xbcdd2ae13c3ce7c0U, 0xbd89a3313d179cebU, 0xbdc5d84ebba0206eU, 0xbbd5c613bdba4df6U,
  0xbdb9a8163d26899fU, 0x3da919d8bd8ca6f0U, 0x3c6842633c48655fU, 0xbdac99b1bda0ba94U,
  0xbd8b4a86bc1698baU, 0xbc387f853d138dceU, 0x3d029d6c3dae5e0fU, 0x3d2d95053d8e890cU,
  0x3d5ec50c3b6cb220U, 0xbda85328bd9a300cU, 0xbccbf61a3d20f4d5U, 0xbd3215b3bd764826U,
  0xbd8124293d9f861fU, 0x3d8e9c323d83edafU, 0xbd955d663dad02faU, 0x3d91aa103d8278e7U,
  0x3d377cbfbd866b78U, 0xbceca7ac3d530cc8U, 0xbd697612bd02e031U, 0x3da89242bd99b7bfU,
  0xbda01a9cbc123d95U, 0x3b20eca43d98614eU, 0x3d888dad3da336b1U, 0xbd2a7be63d493dc1U,
  0x3d9800b33d647b91U, 0xbdac8ba93ce5682dU, 0xbd0a9d333d829618U, 0x3db2341b3c77116cU,
  0x3d2a24fdbdb2a8e9U, 0xbda2e9bdbd14d449U, 0xbda78a0d3d302413U, 0xbc91fb293c1a30c4U,
  0xbd10f7603da52482U, 0xbd97d4dd3d42fdfeU, 0x3d1ea209bcc6af9eU, 0xbd7682643c0c93f4U,
  0xbd7d1deabceecea2U, 0x3d82eaf83d968456U, 0xbd7bb1c8bc463c66U, 0x3da423653d8fffbdU,
  0xb9eb7380bd0a9f61U, 0xbc809aa4bae5d1c5U, 0xbcb3e9ac3b45a622U, 0x3d8b46adbd48a757U,
  0x3c8f5a88bdbfdcb3U, 0xbd9d51883da60889U, 0x3c96f1c93d0044b9U, 0x3d8c09a93d522b39U,
  0x3c30d0173da31ba2U, 0x3c2bbaee3ab1c4f6U, 0xbd69f8413b8a4a52U, 0x3da2e1423a526d3cU,
  0x3d898556bd48393cU, 0xbcce151fbd23f1f9U, 0x3cf8760a3da78012U, 0xbd9c10f73d5cc8c8U,
  0xbd6540cfbb6435cdU, 0x3c6d108e3d073c0aU, 0xbd586c1ebce6226aU, 0x3c2ec0fc3da224c1U,
  0xbcebf784bb840442U, 0xbd1973a1bc533636U, 0x3da31b6fbd6f7f70U, 0x3d86f0ebbd40ddabU,
  0x3d332c56bcf862e9U, 0x3d91dbedbd89fdceU, 0x3d921726bd95609cU, 0x3d581f7e3d45d65bU,
  0xbce8322a3cab4fbcU, 0x3c45fb343c44031bU, 0xbdb3cf5d3db5cd16U, 0xbc1f9c68bcec2d40U,
  0x3d0086d8bccf1fa4U, 0xbda7df24bdafd3b3U, 0xba9ec7d83d30e813U, 0xbc9fbb72bc52422aU,
  0xbda2dc5a3baa7064U, 0xbbe32300bdb6e8b8U, 0xbdad485cbdb1e106U, 0xbd41c1983c196597U,
  0x3d29dc093c24c24aU, 0xbd84630bbd89f80eU, 0xbcc0e3a5bc925b87U, 0xbd72dacb3d201e4eU,
  0xbd025249bce5dd36U, 0x3d8308b83c7f4066U, 0x3dabd3a4bd71d7caU, 0xbd10c4863c5b0f55U,
  0xbdac66563d813affU, 0x3d4e379abd5f0890U, 0xbc9ba6603d57348cU, 0xbccaaeac3d1f3742U,
  0xbda763a5bd6f7c03U, 0xbcbdd1a9bd49e204U, 0xbc905f4cbccee13bU, 0xbcae1abfbd93591eU,
  0xbdb65fa93d10d1dfU, 0xbcd7b508bcbb2c7fU, 0x3d84a52f3d4aad7eU, 0xbd81f80fbd84fe0dU,
  0x3d164df9bbf51d34U, 0xbd69fc81bc823c8fU, 0xbda7c76bbcb4cc82U, 0xbda8d311bc28bbe4U,
  0xbc9a03cb3d35775dU, 0x3d41d938bc40d726U, 0x3dba6106bd47b812U, 0xbda73b99bd0636d9U,
  0xbd7145b63d747bc6U, 0xbd379b0dbcb965d3U, 0x3d6dcd56bd9da30dU, 0x3da19e49bd85f540U,
  0x3c3f656cbcb89b4cU, 0x3da6bde9bdba61b0U, 0x3b0001fdbceae5e4U, 0x3c40bd6e3c996205U,
  0xbd4878443cf0bcfaU, 0x3b9f4d95bd2309e7U, 0xbdac8c223d7fc854U, 0x3cf297853d9fde8dU,
  0x3c9d6e33bcef9297U, 0xbd902eae3cca3504U, 0xbda2ef16bd050834U, 0x39b81158bd516fbcU,
  0xbb9ceab6bc7dad8bU, 0x3d91d7c13d9da8a2U, 0x3b0afed7bcf052acU, 0x3d36337c3d8e75c7U,
  0x3c94c881bd12449dU, 0x3cc6d1c3bd6f4230U, 0xbcd7d3a7bd80e0dbU, 0xbd004ad63d15c104U,
  0x3d2ec98a3da9f241U, 0x3db3b8073da8ab3fU, 0xbd294c0e3d8196c4U, 0xbba24b34bdab28ccU,
  0xbcdc43ec3d82a45eU, 0xbd8ac86b3cb18a06U, 0xbdbd18e83d28e373U, 0xbca475643cfc0ceaU,
  0x3d30db5fbc8ad132U, 0x3bfb885b3da02616U, 0x3d83ce5bbd34f266U, 0x3d30166abc683c62U,
  0x3d4bb64d3d95c4dcU, 0xbc85d1d23da0317dU, 0x3ce9b6323cb31951U, 0xbd34cce13c9492fdU,
  0x3d84bb70bda40b7aU, 0xbd822906bc9aa3f6U, 0x3d21c66fbca90e9aU, 0xbdac540d3d2eb1bbU,
  0xbd0a2c11bce7c954U, 0x3d059990bdc3c34eU, 0x3b3a3315bda6fad7U, 0xbd95dbb33ce414abU,
  0x3db57f193d64654bU, 0x3c7192413daddd5fU, 0xbcdb277d3d8bba3dU, 0xbb3673c2bd55a296U,
  0x3b12f74fbd90140eU, 0x3d6aa44f3d06e197U, 0x3bd4e0d4bd3aee14U, 0xbd877ab2bd0ad9e9U,
  0xbb8e81323db8bab0U, 0x3d8584473d76f792U, 0x3d9a1966bd969d02U, 0x3d8107223d434c05U,
  0x3d1da1233db5c72eU, 0xbd1bfbec3daae131U, 0x3d4cfc98bd99a161U, 0xbd5283a0bdac7f0eU,
  0xbcc940bcbb5d4dcfU, 0xbca0c740bdc63e97U, 0xbd5c7efabdabd28dU, 0x3d23ccecbdc1eed4U,
  0xbd878aa2bd08bac1U, 0x3d21633ebdbe6976U, 0xbd45291cbdbfec1aU, 0xbdb5ff1c3da7794aU,
  0xbcdab5583dba550fU, 0x3b8a51f93d8567caU, 0xbdb55a2a3b113173U, 0x3d14628ebd9c5da5U,
  0x3d2136c4bd8a6d00U, 0x3d3cf696bd595b49U, 0x3c0a16e83d893e92U, 0x3db76f2b3cbdee08U,
  0x3d82c78b3daf597fU, 0x3da74d53bd4f000fU, 0x3d05b3d83d172977U, 0xbd5482a63d1934b0U,
  0x3bd002a6bcc4f8ccU, 0xbdb16df33c869e4cU, 0x3d29cc4e3d5bf831U, 0x3c4eceda3c911714U,
  0xbcd0094f3c89dcacU, 0xbd8438013d4fec34U, 0x3d3dea513d2b7badU, 0x3d470497bd7f1fd0U,
  0x3d7ceac33d8bd076U, 0xbd8e6f713dba44b9U, 0xbcc2909a3a772624U, 0x3cf9dd30bd842fb7U,
  0x3c9173e33dac0ddaU, 0x3d2cb66c3cc8e12cU, 0x3b79b4bcbd56f4b0U, 0x3d2d3d75bd6b176bU,
  0xbd7524723b5f768dU, 0x3d2a74003d765abeU, 0xbd023ad03d4708d1U, 0xbcb3afd43c8057f0U,
  0xbdc2819e3c0df942U, 0xbdc26adf3d5d1ebeU, 0xbcf648dabd8803f0U, 0x3dba3f503db29777U,
  0x3cc20bbebd9d48f2U, 0x3c398733bd0b2528U, 0xbd97cd78bd11bbd8U, 0xbc51de4ebc2f42d3U,
  0xbc7c75963c9133c4U, 0xb95d5b203db8d6a2U, 0x3d9c8f963cb47fc0U, 0xbd4310753da33c11U,
  0xbd96efd13d3d013fU, 0xbc1b051f3c91c7c3U, 0xbc93dfff3d6db6eaU, 0xbdc1204abc0b09faU,
  0xbd105cbfbdbdb104U, 0x3d25120fbd823f0eU, 0xbd94bf0b3cd036b0U, 0x3db3caa63ba76b5eU,
  0x3db962a0bd0f154eU, 0xbca3bfba3da38b72U, 0xbda49113bcafca4dU, 0x3cf01b713db85aa0U,
  0xbd9937f2bd980eeaU, 0x3db9dcd5bd78990dU, 0x3d9623bbbc0c0fbaU, 0x3d9e91303d0af7c8U,
  0xbda4580cbd594e2aU, 0x3d185d4e3c0fa1f7U, 0xbb8480d4bd9adde5U, 0x3d05804d3bf35aefU,
  0xbd820094bbbdb080U, 0x3befabc0bcbf4aa0U, 0xbcdbc9d43d75cefeU, 0x3b8bb0e03d94809fU,
  0x3d8ebd4f3d635816U, 0xbdbc1a863cbcdbe8U, 0xbdb249db3ca2fbecU, 0x3d4a96623cd13170U,
  0x3d2efbea3d99efa3U, 0xbdafcee0bd42ac63U, 0xbc98f5583ce9e380U, 0x3c3a42883babda70U,
  0x3d3ab3c6bd9eea5aU, 0x3d90a95bbbc8fe10U, 0x3d0af21e3d815323U, 0xbdaeb305bd89ddfdU,
  0x3a1ac2803d950f8bU, 0xbcc9aa503d5ce9eaU, 0x3ccfcf90bdbca6d9U, 0xbd13e9cb3d62d596U,
  0x3cad27acbbce6a80U, 0x3d2d6e8ebd833ffeU, 0xbd294b09bd8e5055U, 0x3db6b96b3ced2ab4U,
  0xbd1603ce3dab672fU, 0x3dac7f53bd3da95cU, 0x3d8c5a7dbd298b26U, 0xbd14bd11bd2e3c84U,
  0x3affe0803ca94824U, 0xbcf9e7c03cb91214U, 0x3c7b75e0bcd6706cU, 0x3d71b9dabd566299U,
  0xbbacb5f0bd36257fU, 0xbdb442143c83cb3cU, 0x3c2126b83d6dfcfeU, 0x3c1c17f03d997eb1U,
  0xbd1a22bebd6ffe7fU, 0x3dad3c873daa35ddU, 0x3c24f6f8bdb5b7a3U, 0xbd6cc462bd25e482U,
  0xbda289383d5677e2U, 0xbc258930bd9f1402U, 0xbd90f85abd512476U, 0x3d5d643abd3c9b29U,
  0x3d127052bda32126U, 0xbd7ab05e3d7aeb8eU, 0x3d0de1863d54d31aU, 0x3db57c153dbcb6adU,
  0x3d1a5c223d2f02aeU, 0x3d136aa2bd885d64U, 0x3d53a81a3d4eedd6U, 0x3d9bb257bda1e6b0U,
  0xbbbb0b10bd0d5907U, 0xbd25c13f3d1405caU, 0x3ce11d703dbf894bU, 0xbdb57fddbdbf9d77U,
  0xbd651b9c3d5225f2U, 0xbcadef44bd954537U, 0xbc485400bd76f25aU, 0x3cde16e8bda5fc70U,
  0x3c6ffd903d3de47eU, 0xbd879bea3d39ed72U, 0xbcc9e6783d2ae3caU, 0x3cac928c3d86256fU,
  0x3dab574b3d089a06U, 0xbbf33b903c391338U, 0x3cddccf03d9983b3U, 0x3bcc4de03d66ce4eU,
  0xbcb5577cbc2438f0U, 0xbc03abb0bd435168U, 0x3c3853983d0fe742U, 0x3cda5af43da08919U,
  0x3cae8ef43d58cf72U, 0xbd5a1545bd3ca578U, 0x3d59f47a3cc60db8U, 0xbda9d5afbcb81414U,
  0xbd8bd07e3d1b6ac2U, 0x3d17c8a63d32c366U, 0x3c5c0a78bce4079cU, 0x3cee40b8bda69268U,
  0x3d2f47163d8564cbU, 0xbdbb0f47bd00a606U, 0xbbc173a03ce24f84U, 0xbd1f77ffbd6a94dcU,
  0xbd48acc0bd35cb16U, 0x3db9b0c7bd80d1b0U, 0xbd4246eabc3a0e00U, 0xbd8c521b3d16d13aU,
  0x3cc3892c3d0c164eU, 0x3d30842abce0e6d0U, 0xbd006dea3d40eba2U, 0x3bc733e03da9767dU,
  0x3d9e10c53c53e8b8U, 0xbd9f1af2bc1b1d58U, 0xbdb2cc58bd89876cU, 0x3d26e8febd097912U,
  0x3dba85e9bcf16690U, 0x3d80e379bc087868U, 0xbd5f21853d84999dU, 0xbd874324bcaf0e48U,
  0x3d4e71a6bd5484cfU, 0xbdb593d2bcf5e234U, 0xbd4f6fb63cb00b00U, 0xbd90c0b93ad9f1c0U,
  0xbd8a08033dbc4a99U, 0xbd41a76abb430c00U, 0xbd0d9783bd77b2f8U, 0x3c4e6418bc37d130U,
  0xbdae63be3da7a27fU, 0xbc55a8383d84cff1U, 0x3b2f50c03cfc9324U, 0x3b6de100bd35e2ddU,
  0x3db5a4433dbb7f2dU, 0x3c4d6840bd993c80U, 0x39444c00bda4f063U, 0xbd8047e4bc1f3940U,
  0xbda3f5613aba0c40U, 0x3d8b6bf9bd9d97a2U, 0xbda265e93cf8def4U, 0xbc3aca80bd921e99U,
  0xbcf58b34bd19a5f6U, 0xbdadbea7bd1f67e3U, 0x3d47a7da3dbc1313U, 0x3b7b5cc0bd93856dU,
  0x3d3920963c0aa710U, 0xbdb3d835bc8f1b34U, 0xbda2fba2bdae8beaU, 0x3d9d58b13db66f15U,
  0x3d898135bca4b8e0U, 0x3791b000bd39e6caU, 0xbdb5d894bd84d47cU, 0xba0fee80bd05829cU,
  0x3cb9bb4c3d293576U, 0x3cc4cfdcbcfbfe34U, 0xbd9e86f1bd9884c7U, 0xbd577f293cde0b64U,
  0x3d3409023d1d8ce2U, 0xbc307aa8bb043d80U, 0xbdaaf6c0bd6fceebU, 0xbda58280bccd4c48U,
  0x3d916e853d8bd8d1U, 0x3d89fd1d3c69e7c0U, 0xbc403bc83c464738U, 0xbd7ad32fbc48b2d8U,
  0x3d5e3b223d90a2b5U, 0xb986f800bd9767bbU, 0x3d7582c2bc2bd458U, 0x3cb4cf54bdb2183dU,
  0xbd992f3e3d8dfd9fU, 0x3c3826e0bcdb3240U, 0xbd5586bdbd800b4eU, 0x3d65132abda80b00U,
  0xbd294a303d6a0d2aU, 0x3c423738bd4d92c4U, 0x3cef3d64bd9cbe4fU, 0x3ce8c428bd606921U,
  0xbd8de6a0bd12e7faU, 0xbd9b3800bd3d5d01U, 0xbc0e8ee83d9e8523U, 0xbc04fbc0bcdc3730U,
  0xbcc73cc8bd565229U, 0xbda76cd5bd9780ecU, 0xbd546ca1bdbdc943U, 0x3d00fed63d301c12U,
  0x3d7f3b86bd8631c6U, 0x3cc43dd83d79c7faU, 0xbdb5c1103ca9b0f4U, 0xbcce3130bd820957U,
  0xbd94da08bdb58b6cU, 0xbd9e6777bdb77c2bU, 0xbd7bad773d28c37aU, 0x3cf40bd0bc584558U,
