/**
  ******************************************************************************
  * @file    network_data_params.c
  * @author  AST Embedded Analytics Research Platform
  * @date    2025-06-23T20:03:21+0200
  * @brief   AI Tool Automatic Code Generator for Embedded NN computing
  ******************************************************************************
  * Copyright (c) 2025 STMicroelectronics.
  * All rights reserved.
  *
  * This software is licensed under terms that can be found in the LICENSE file
  * in the root directory of this software component.
  * If no LICENSE file comes with this software, it is provided AS-IS.
  ******************************************************************************
  */

#include "network_data_params.h"


/**  Activations Section  ****************************************************/
ai_handle g_network_activations_table[1 + 2] = {
  AI_HANDLE_PTR(AI_MAGIC_MARKER),
  AI_HANDLE_PTR(NULL),
  AI_HANDLE_PTR(AI_MAGIC_MARKER),
};




/**  Weights Section  ********************************************************/
AI_ALIGNED(32)
const ai_u64 s_network_weights_array_u64[2388] = {
  0x3dfe759a3c66ee60U, 0x3e1bfd403ca946dcU, 0x3d4ba9f83d391a5bU, 0x3e34b4f6bd245ba7U,
  0xbd5adfd13b950cccU, 0xbe191062bcdb5a3fU, 0xbe4580da3e3c08c5U, 0xbe2d2bf0bd958b92U,
  0xbd4ca4aabe42cd6aU, 0x3e360e8cbe48a945U, 0x3d2f4ee3bd589b53U, 0xbcb74ce3be35190bU,
  0xbd05876fbd75edb3U, 0xbe15f1863de34b7bU, 0x3e0e1e6ebe1f7350U, 0x3e0a33adbd8f843dU,
  0xbe04a1b6bd156781U, 0xbd6e7dbcbe184be0U, 0xbda97735bd6b1d83U, 0xbe18e65a3d6b411fU,
  0x3d85255dbdee451dU, 0x3dd803abbd370760U, 0x3d7fbb89bd8dbeeaU, 0xbcea2acb3e2f6f87U,
  0xbe093f80be08030aU, 0xbd9bf77abd952325U, 0x3dabd2ddbd33c95cU, 0xbcd0cd783e0b99e3U,
  0x3da2019cbd757196U, 0x3d6f8bdcbe286659U, 0xbde9dce63dbb52fbU, 0x3e3c720ebe311cfbU,
  0x3e2d0faebbbc8f40U, 0x3d4a381a3dfcd8e9U, 0xbd5c28cf3e35d539U, 0x39038f073decf15aU,
  0x3d28b92d3df84750U, 0xbd81c1793db9f6a5U, 0xbcf55c44bc894979U, 0x3d97fa013d45d85fU,
  0xbe1a09bfbdf3f443U, 0x3c9240acbe1c4cb3U, 0xbe2bc016be04d9c0U, 0xbe1cddec3c9ad81fU,
  0xbe45b07b3cdeceffU, 0xbe486d773cff49f0U, 0xbe2afd353d0d4a36U, 0xbe19ac8dbe1659cdU,
  0x3d7beea5bd6a4dfbU, 0x3d2bfbfdbd9e724fU, 0x3cfb50083de2b378U, 0x3d9c97193db5ecb7U,
  0xbdf2db92bd914a0fU, 0x3e29e5b43dcd3da2U, 0x3e17652e3e3f6eebU, 0x3cd5ed38bca0ce67U,
  0x3df45855bded43ffU, 0xbe0af34fbd3926b5U, 0x3e0f664dbe2144f7U, 0xbe32a26c3d95c70fU,
  0x3dc27b96be1c9940U, 0xbdecce383dd91f43U, 0x3e3096003d260f48U, 0x3dcf7576be23dfccU,
  0x3dc9d2593d8d378cU, 0xbd72d115be8bae66U, 0xbd8c7a2c3db2d7a5U, 0x3e3a8cf43d4c331cU,
  0x3ea632bb3d8b0e53U, 0x3e3a7fd23e34c552U, 0xbe1881a33e98602fU, 0x3e012ed13e6e8343U,
  0x3ee2bc7b3e78e563U, 0x3da7becdbcd5789bU, 0x3e69f265bd3c4607U, 0x3d4650043d8708e7U,
  0x3d2f7e79be730c7eU, 0x3e0bb74fbdf7701cU, 0xbe1db1d73cf3fc8cU, 0xbe3577eabe00098aU,
  0x3e3746dcbe29457eU, 0xbe51d4e43dac2424U, 0x3eae10e43d221eeeU, 0xbe0485d73d8741f2U,
  0x3e6670d73ef32a73U, 0x3eabf6503e965c5aU, 0xbcc51e633eae4a1dU, 0xbe12e48fbdf994ebU,
  0x3e07e0143cabe6d9U, 0x3d227e71bdda9aadU, 0x3cee3a5fbe0351edU, 0xbe91c454be31fa8dU,
  0xbe53f11dbebba34fU, 0x3e124d04bd6912d1U, 0xbe6734463d0c1aefU, 0xbe649c8b3cff4fe8U,
  0xbd9b67c83cb7a717U, 0xbe130a23beab4f8cU, 0x3d82407b39d9e46bU, 0x3e910be1bd49d46bU,
  0x3d08f3bd3ec23c1bU, 0xbe437dd73eeaa723U, 0x3d8f5a5bbe09b2cdU, 0x3e26d3d03daf0105U,
  0x3e143e43bdc31513U, 0x3e400c553ec61619U, 0x3efc6f143ea69fd5U, 0x3eb437c03e81505fU,
  0xbd41dd79bdbb58e8U, 0xbdae1d483e1b649aU, 0x3d474f9d3e36d7cfU, 0xba513b523dff1846U,
  0xbe05b9473c8a6b39U, 0xbe81790abe65b054U, 0xbb4430d2be95f55fU, 0xbdbd6c45be4a40cdU,
  0x3cd6aab1bdd9f3bfU, 0xbc00ce5fbe88b761U, 0x3d3c26b93e63ee6aU, 0xbe9054b03dacf5ebU,
  0x3ddb11dabe92765aU, 0x3e0ad152be70547eU, 0xbe83c1f13e1b3f8bU, 0x3e6ce19cbc80e882U,
  0x3e831506bdfacb42U, 0x3e9ea1b13e94126eU, 0x3e9d2098bdba8b85U, 0xbc7d86abbe748ddeU,
  0x3e2839873e06392cU, 0x3e77b80f3c3c3a5dU, 0xbc54a3ff3c8c41e5U, 0x3d82fe343d4703bdU,
  0x3e4984ec3ea67f6aU, 0xbe0095fd3de50a0dU, 0x38048c41be97edc6U, 0x3e2ba1dcbe30b75bU,
  0xbe216c0cbd006118U, 0x3ea6664c3e7859a5U, 0x3e0dc0a53ddb9da4U, 0x3e47e3623e56f0beU,
  0x3e4f71c53e92c890U, 0x3e936f653e05238aU, 0x3e0ce1cd3e095c41U, 0x3ea13a7a3e8f18d1U,
  0x3e99c9183eb1bf39U, 0x3e5e3f213ee82f5bU, 0xbc77cb593e9f32a5U, 0xbe00b8963e14a3faU,
  0xbead9177be16e5caU, 0xbd512579bebf9d21U, 0x3de917d9beb5aba2U, 0x3e4e63e33e42d57aU,
  0x3da4da0dbe0e1429U, 0x3e99acd2bddfb79cU, 0x3e40ed2b3ce874eeU, 0x3e5a05353e554e83U,
  0x3df127a73ec0b96cU, 0x3ea8c46f3e2e5eabU, 0xbc333d343e81d841U, 0xbc8b2f663e86f2daU,
  0x3d8a475abd33573eU, 0x3e15b42f3d67dc32U, 0x3d0a7a6e3d9f9fb1U, 0xbe2525babc84489fU,
  0x3e706582be282b82U, 0x3e7e0daa3d3d245bU, 0x3e67ab8dbb8d0805U, 0x3dfc76bd3e31ef84U,
  0x3d80b0fe3deffca5U, 0x3dde73eb3ca19a7eU, 0xbe9a183dbed60826U, 0x3e54befcbbda1295U,
  0xbc041fbc3dbb8972U, 0x3e098a26be4ca7c4U, 0x3e8004943e46cccaU, 0x3d3c53cabca98183U,
  0xbdbfb47e3e73ce01U, 0xbb43de883cfbbf62U, 0x3ed8a98b3ead0e6fU, 0x3ec220e23e843cd2U,
  0x3da2eeb13e26e798U, 0x3e4956703e3d3e56U, 0x3ec75c043d7e200eU, 0x3e9313493e30d25bU,
  0xbd22f38d3d9a5c71U, 0x3cc769ad3db15dfdU, 0x3c32cd28be14cce9U, 0xbdde6daabca31401U,
  0x3e76359f3ebf0699U, 0x3e2368c73e7a79d6U, 0x3dd055533e1f6301U, 0x3db136273e6954c2U,
  0x3ea84056be19830bU, 0x3e6e43b23de865f0U, 0x3c395f5e3e8cdbabU, 0x3daf1fd03c04c3c9U,
  0x3cf890a23da803daU, 0x3e84cff93e0c4dd3U, 0x3dd34f213e296c07U, 0x3e63fb253d350804U,
  0x3c032e1f3e5681c6U, 0x3db1ccfe3eb482daU, 0x3dfabc8b3cfcfb3fU, 0x3ed1d2ff3db7db59U,
  0x3cf0e4c73e96780aU, 0x3ca200f23eab807fU, 0x3e5eba393ddef209U, 0x3e048b2a3d27f65aU,
  0x3dcf48683e909aafU, 0x3e9547883e2cf085U, 0x3e0f2f0e3d578d1bU, 0xbc9935d23def472dU,
  0x3c79460fbd61e9faU, 0x3d4e2c7b3e7c9c0cU, 0x3e1e9008bdbfaedeU, 0x3c384e5b3e90e84bU,
  0x3e8faf533e89f9e2U, 0x3e60c4cd3db3fd4fU, 0x3e5575ab3e8e3e41U, 0x3e7cfbe43ee5ff7dU,
  0x3c6641dc3e524532U, 0x3e9c0f573d374025U, 0x3de582fa3e87b2c3U, 0x3b1102023eb2b03cU,
  0x3e971f103c6328dbU, 0x3e1068c93d2219eeU, 0x3e5a61a03e9a89c9U, 0xbdadeb513e6df7f7U,
  0x3e5315fcbd95cbd7U, 0x3c8a74c53e175f35U, 0xbc3749a13e3bf4beU, 0x3e4e6a41bcaa0e5eU,
  0x3e121d363e3abb08U, 0x3e4c91debe065f7eU, 0xbbab4df0bc4c54ffU, 0x3c42884c3e1358a2U,
  0x3db79ada3d6dd679U, 0x3d4739ea3e4ea07fU, 0xbd624a11bd9fd6eeU, 0xbc9eb4073cecaaf2U,
  0x3e8d80b03cea20b1U, 0x3d5920e63da8bdc8U, 0x3e2c756d3e44aa4dU, 0x3df8f3733e8711f4U,
  0x3e656f933d778bb1U, 0x3e8763703e238660U, 0x3e858fd53e203c74U, 0x3e1bca663d680892U,
  0xbd5124093e8a7476U, 0xbd928b4b3eb5a043U, 0x3e4bb4fb3df79727U, 0x3e868348bcfe31e5U,
  0x3e9c83683eb716aaU, 0x3e6da1b7bb606cd7U, 0x3e6ce7ec3eaa3996U, 0x3db526123cf4d736U,
  0x3dc2c7b7be31ba84U, 0xbe34fdc3bc28ac1dU, 0xbe03426ebddf8fcfU, 0xbc736c833e03b596U,
  0x3e2209b9be21b803U, 0xbcdbbc653e01e4faU, 0x3c2fe5f4bb940d71U, 0x3e16ee7fbd982ffdU,
  0xbdc41b4a3c8787dcU, 0x3d635961bdab676dU, 0x3da70ab7bddd968bU, 0x3ccf9dcbbe09c167U,
  0x3b7c73853e1da9daU, 0xbe42e53d3e0d2f25U, 0xbc8fdda83df11b22U, 0xbd62cd55be3d2884U,
  0x3e21423dbdd7d81dU, 0xbe10e3b6bd3ced70U, 0xbba1c7dabe457a20U, 0xbe1b236bbc827794U,
  0xbdcac55abdaf1c9aU, 0xbcba8d67bde6dad6U, 0xbddebb683aec234fU, 0xbd9a5ab03da06188U,
  0xbd5295163ca37a66U, 0x3d545605bdace784U, 0x3e014be7bd991032U, 0xbe05cb91be0a5467U,
  0xbde74acdbd46c988U, 0xbe034dd4be493b4dU, 0x3db28bc63dcec94dU, 0xbd359491bdf9afc8U,
  0xbd96d9223dbcc905U, 0x3ded1c0b3e3a9a7aU, 0x3e382117bcc78150U, 0xbd047ad5bd71f436U,
  0x3d9457bb3e2cf6fbU, 0xbe179b1ebdbba814U, 0xbe39c070bdda3fe0U, 0xbdad3c9e3c2937eaU,
  0xbe42d9b13e00171eU, 0xbd946f3c3e332e75U, 0x3cef452abd2da88cU, 0xbe1a24cfbe231b77U,
  0x3e07d9d2bd384d99U, 0xbd0cc2fdbe0a3e88U, 0x3d8c72c53c9cb577U, 0x3db2e419be3aa782U,
  0x3dd14a553d0af274U, 0xbd1f33c8be222ef7U, 0x3d20ca8ebd9cb05bU, 0x3e25beb63d8c846dU,
  0x3d969ad8be026515U, 0xbdddce90be13a4e2U, 0x3e2010d8bd30a347U, 0x3dd8a1dc3d76e60cU,
  0x3e03d30e3dc2837bU, 0xbe081acc3e154326U, 0x3e2fd475bdb2c159U, 0xba6707c3ba977dbdU,
  0xbd4c11503ca40780U, 0xbdfeef0b3d772430U, 0xbd646b2a3da681efU, 0x3e266c623c80b1feU,
  0x3dc70e90be213148U, 0xbdc9e8fd3e8a398dU, 0x3d72952cbdf8b6f4U, 0x3e08b9093dbe699bU,
  0xbe3995bb3e7a09abU, 0xbd2a4ee2be735746U, 0x3ed1b98f3e8ca2c3U, 0x3d6aa0d73e603e96U,
  0x3e65daf33e1d08edU, 0xbe2f12673d41b30fU, 0xbe04c9ccbe3b5ac7U, 0xbe2722473d42d6e0U,
  0xbe0ffeb5bd8bf2cfU, 0xbdc9497dbb2a23dcU, 0xbe1e4d6dbe675fa3U, 0xbeb12e09be6a0dfaU,
  0x3e36338bbd055ecfU, 0xbdd0959dbedcdf7aU, 0x3e79f164be6c3ad7U, 0x3d60709c3dfc1b08U,
  0xbdb372993cbf1903U, 0xbe1009913dcb91a1U, 0x3d5b28303c8575d4U, 0x3bb178b63e2ac0e4U,
  0xbe290b923e96d3fbU, 0x3e6244ec3ec7e746U, 0xbe93771c3d73724aU, 0xbcb9ad12beb9a4c9U,
  0x3ddae234bc80da97U, 0xbd06002c3e04c7eeU, 0x3e9dae693db7d269U, 0x3ea9fff93d980ab6U,
  0xbde0ecb53d46a7c5U, 0x3e3d111bbc052f75U, 0xbcf3302dbe62b23eU, 0xbd5368fb3dbe5b8eU,
  0xbdec1367bdbd8d00U, 0x3e82cc333d6982a5U, 0x3c25a2ac3e6b521eU, 0xbdf7a774bdee0befU,
  0x3d2e98ec3cfbc06fU, 0x3c72a3fa3dc17353U, 0xbcebce8a3dfeb621U, 0xbe7383d83e047ea8U,
  0x3dcb31343e17f25bU, 0xbb8ef02e3e380711U, 0x3df9a2e9bcee9c69U, 0x3b743f9c3dad14acU,
  0x3dc9633a3eaf9e15U, 0x3e3bc0263e8902ebU, 0x3e3cb4ea3e82f24aU, 0x3e74b40e3e35b9c1U,
  0x3e318e663db29c78U, 0xbe3ce9f3be4b350dU, 0x3d05a018be982a06U, 0xbdb93a58bd59ead7U,
  0x3dfdf8493c9c203cU, 0x3d277591be3324edU, 0xbe1730643c6f3f90U, 0x3e43073abe0d792bU,
  0xbe5863ffbe8b0621U, 0xbdd0117f3d588ebeU, 0x3dba6ff53cd599f0U, 0xbe819279bbe7cd08U,
  0x3e45e1f83e3571a8U, 0x3e47b63a3e672df4U, 0x3e1cc03d3e4e2be3U, 0x3e4594ba3e51280eU,
  0x3dd6fae53dc48d34U, 0xbb937c213cf45603U, 0xbe58a2bfbe31de06U, 0x3cd38c713e454631U,
  0x3e0e62513e546194U, 0x3e1b33aa3dc528d4U, 0x3e01ccfa3e893189U, 0x3e6f914e3d0d8e4cU,
  0x3cc1e8b03ea6ac6eU, 0x3e21b58c3e0d70aeU, 0x3e86f50b3e717ce5U, 0x3e9c6c313e9c7104U,
  0x3e6160853da992b6U, 0x3df5b1063e3b0c21U, 0xbb0834c43e5245ffU, 0xbdbe29cbbcfe9649U,
  0xbdc7be15bcfcb585U, 0xbe4dab1bbe33682cU, 0xbdb9105cbdfab667U, 0x3e3e398c3dde4083U,
  0x3e9c9360bc2f24fcU, 0x3df5a777be12c62aU, 0x3e7529753e1aca8eU, 0x3d7b955d3e1ee269U,
  0x3e44d9d63e8fba46U, 0x3da6679d3e10e3ebU, 0xbcd0ce9f3971ada4U, 0xbe3c7c383d8a3e9eU,
  0x3e30b131be02d817U, 0x3ce9f01b3e25eb65U, 0x3e8f0a983e4bc9c8U, 0xbdb0657c3e7b0154U,
  0x3e189f483ddad0f8U, 0xbcc632653cb7f052U, 0x3d4175333d840a43U, 0x3e487d67bd97895bU,
  0x3cc3fa1f3bb552abU, 0xbdc83cf33d101e1cU, 0xbe4ad891be514d28U, 0x3e2549683de1e3b1U,
  0xbcc33aa23c17d46bU, 0x3df7393f3e0f13c8U, 0x3cb0a1c8bc71380fU, 0x3e21a1733db35eceU,
  0xbdac9abfbdcc6f0aU, 0xbd87db76be2926d2U, 0xbd1ec9c6be3d0890U, 0x3d030361be94b0eeU,
  0xbd60929b3db5569bU, 0x3e5035c13e04cf04U, 0x3ec34ba93ec50f60U, 0x3e50f42c3e9a5ea5U,
  0x3c1923313e82a7cdU, 0x3dcdd5373e8e26e1U, 0xbcb8a68b3e3ca18bU, 0x3e3ff5e33e7258f4U,
  0x3e6405463d37f07eU, 0x3dd27d723e11bcb1U, 0x3e6575f03eb15d30U, 0x3ee218d53e102a8aU,
  0x3e778acdbccbdef8U, 0x3de6eba13df237c0U, 0x3d85a8e7bd68b4d5U, 0x3e9d6385bd83d681U,
  0x3daee5603eab4896U, 0x3e30245d3e1eed13U, 0xbe70dce3be88d13fU, 0xbd4eb76fbe55a8faU,
  0xbe71e655be3c795bU, 0xbe25917c3e9bcf77U, 0x3e06a80a3ea1824cU, 0x3e7a00f53d20e916U,
  0x3c27cb443ee15546U, 0x3dd3e1dbbc927d4cU, 0x3e8e23cc3e4cdba6U, 0x3eb88f5d3e7cf4ffU,
  0x3e860d72bd789292U, 0x3e9cdca43e36de24U, 0xbde0dd433e25ddd8U, 0x3e2fa8663d1252c4U,
  0x3e088e56bda4bb89U, 0xbe231942be8c5b42U, 0x3e51189cbe6ae7d4U, 0x3e635ed13e8c2ec8U,
  0xbe9cbee93d4a7e79U, 0xbe00329c3e242861U, 0x3e4e6f37bcdfc676U, 0x3e45dbac3ed46264U,
  0x3e47f1713e6a6304U, 0x3e552a893e70a44cU, 0x3e28abbb3b9fc0b5U, 0x3cfa0d9d3dd8d71dU,
  0x3d1e663d3e2de84cU, 0x3bd9900a3e66f240U, 0xbdc211a6bca2dec2U, 0xbe00b312be23cf0eU,
  0x3bfb0968bda52c3aU, 0xbc4fcbeebe8511d0U, 0xbe62b0abbe1b6449U, 0xbe0417e83e121b06U,
  0xbe4bcc7f3ce457f1U, 0xbdea8d58bebfbf00U, 0xbe84f796bebef57dU, 0x3d092c94bea65059U,
  0x3dee04df3c5d9c5eU, 0x3e3f0a2cbe71bf89U, 0x3be1d1b73e0fa326U, 0x3d9308b73e81a5e8U,
  0xbbfc3fb33de6b271U, 0x3e776a093e9f1825U, 0x3e4eac5b3ee98328U, 0x3e36a2f73dd84f2cU,
  0xbd53b14bbe281783U, 0x3e3c41533e5503f7U, 0x3e47e42a3d71bbceU, 0x3c9cf8f63ea87c60U,
  0xbc0594643d97d0edU, 0xbe1829b53e107dd9U, 0x3da6b83fbe073abcU, 0xbbc1a21dbd086c13U,
  0xbd8d0c333e7e4143U, 0xbcd6cfc63dd431cbU, 0x3c55f67dbd6b444cU, 0x3ecb51d43e872775U,
  0x3d819b82be20f809U, 0x3e177c2e3deb8e9dU, 0x3d9c145c3c124230U, 0xbd2dc2f93d0552d1U,
  0xbe68a5e7bd402a9bU, 0x3daf4141be81fabaU, 0x3eac87123e92b559U, 0x3e367c983e690bdbU,
  0xbe4e24cc3d76462dU, 0x3dde33bb3de375ceU, 0x3dcfa29d3e88230eU, 0xbc913626bd2f5c71U,
  0x3e45e31d3e5a42dcU, 0x3df42007be215a62U, 0x3e73b4c03d8a9d08U, 0x3e01df143e9eb471U,
  0x3d1de0313dfec243U, 0x3d717580bea6e573U, 0xbe128f49be246427U, 0x3e78b27f3e0829e2U,
  0x3cf2a82f3d269861U, 0xbddc524fbd75b94fU, 0xbd9571e8bcd4113eU, 0x3e5568a9bdb52650U,
  0x3dea07773c66f961U, 0x3e77a3d13ddd54f9U, 0xbdda6a983e8b7de0U, 0x3e9060fd3e4bfe19U,
  0x3e09d8953e965bc4U, 0xbe271fae3f1aebe4U, 0xbe0f992abd8922e1U, 0x3df85fd13ea7083dU,
  0x3e5b0f913dc321bfU, 0x3ea16ea63dd93926U, 0x3df48d77bdc2a718U, 0x3c49ad1b3e233196U,
  0xbc9f899e3c0c5b67U, 0x3dca0ecbbe4272acU, 0xbe8b02713e388974U, 0xbcef237dbd80400eU,
  0xbe2523063dcb34afU, 0x3d8c3b4cbe829292U, 0xbe99e0a7bec588e8U, 0xbd3d48e93cd2db1eU,
  0x3e574e0f3e05e97cU, 0x3dd0fd92be10c97cU, 0xbd4930063d23ed9eU, 0x3d60bf2b3e29e6d6U,
  0x3e0a723a3d9b645cU, 0x3e163209bc2ec653U, 0xbeaf03503ebe6934U, 0xbe04a3d9bec151ddU,
  0xbdb170bbbd1ebda9U, 0x3cecab593e2e325fU, 0x3e4962203e63dacbU, 0x3cee5ef33d92598cU,
  0x3d7d3d493e277cd4U, 0xbd9988ad3dd41b86U, 0x3e18b32ebea6f406U, 0x3b9db5c2bcd6ab4fU,
  0xbdb079533efa4a11U, 0xbd2f19293cbae1c9U, 0xbd2e37383e20e1ffU, 0x3e1763623ec7167bU,
  0x3e3026c8bdc38676U, 0x3e4c27453ed6eb1dU, 0x3e0cb64abd4b8b3dU, 0xbe42706a3e070604U,
  0x3b7f5c56be7c1488U, 0x3e41631d3e462c49U, 0x3c3a8411bdb0ac5dU, 0xbc4c13f7be873043U,
  0xbb5676ad3da307ecU, 0x3d8863ad3d1806cdU, 0xbcc68ca93e764ae5U, 0x3ebd22da3e129ca9U,
  0x3c90d6673f260722U, 0x3e90e1303e30a7e6U, 0x3e5f0f953ea813beU, 0x3efa45513e889029U,
  0xbdb7644f3e19c6a3U, 0x3ec341cd3e82b050U, 0xbd4837a53e70e559U, 0x3eaf793b3d4229d2U,
  0x3e1db7ccbee6bab7U, 0xbce15fdabe9d3e1cU, 0x3bab80aabd101f45U, 0x3ee03a663e986f53U,
  0x3c950f4d3e37b523U, 0x3e0deec63ccdacc2U, 0x3e76e7323e225cefU, 0x3e44871a3efbd79fU,
  0x3ec8d5a13ec22d48U, 0x3eece9b9bdcf5d18U, 0x3e2e81993e198dcdU, 0x3ea7109d3d8a35c1U,
  0xbbf617503dc2ba91U, 0x3e50b00d3eef9185U, 0x3e8c621d3ee5ca7cU, 0xbddae9c4bea6f1a3U,
  0xbe6e0a41bea0ed1dU, 0xbdbbef3bbee8e746U, 0xbaf735083d262b6eU, 0x3dd894783e24d48cU,
  0xbe032c493e032633U, 0xbdeb29c4bf003732U, 0xbeef7708be8e5338U, 0xbe84affdbe9e93e9U,
  0xbd51fdc1bdfe18a4U, 0x3eaa7c94bea74fceU, 0xbdc5e703be45c325U, 0xbd021eff3e3a42ffU,
  0xbddda005bc21045eU, 0x3e92600e3e77d83dU, 0x3f086a773f103b57U, 0x3e0af2e93f14ebebU,
  0x3d287bafbd2082a4U, 0x3e98bda93edcc37bU, 0x3e63e87e3ddf76b9U, 0x3e8f4e613e3c4395U,
  0xbcf9ea673e588e1bU, 0xbef6d2d43e5f2066U, 0x3e837d28bea0cc60U, 0xbda1752f3dc724b6U,
  0xbd4f60ad3e7716ffU, 0x3d9ca1143e238473U, 0x3e6b96e73d4706feU, 0x3ee1c6753ec65682U,
  0x3e959e4e3e13b504U, 0x3e45c2a83ec8db9bU, 0x3eb3b2753c9f7c1cU, 0x3e9abb913e243e5aU,
  0x3e85afcd3eb5aa4aU, 0x3ed43c473e0095a7U, 0xbe672aeabe99a2d8U, 0xbea82678be6e8b62U,
  0xbd9441fcbe1f3688U, 0xbdae194cbc1f687eU, 0x3eaefc123e8a282bU, 0x3e2b990c3e70cc04U,
  0xbe2273b53ef0e0dcU, 0x3d38688f3d045b0aU, 0x3e073ee93e7c7fbeU, 0x3ecb90333e81a482U,
  0x3e442f373eb42cebU, 0x3f05cfee3eb471beU, 0xbe790c913e117196U, 0x3dd98d44bd6ba14aU,
  0xbc5bb471bea02f62U, 0x3d9517d23e8594faU, 0x3e3cfab0be1a7583U, 0x3ee31f0d3e549ed1U,
  0xbe59b8e93e8bdd0eU, 0x3e761ec0bd8704ffU, 0x3dea45f3bd8eaddeU, 0x3e75c5573e7b6f8eU,
  0x3d4efdc33ce32f30U, 0x3e407f673da16f31U, 0x3d59b1fc3e7e783fU, 0x3dc358533e1909a5U,
  0xbd9631873c9ac509U, 0x3dad44cc3e8f3cabU, 0x3d5ebb8a3e2a5451U, 0x3c394ec33d45b4cdU,
  0xbd8722dbbe0648c0U, 0x3c8d23b6be0bf02cU, 0xbd9811cbbcf967c1U, 0xbe45f0b8bc939669U,
  0x3d4ce6773e56fdefU, 0x3c197868bd848c30U, 0xbc68cbc9bdd8a949U, 0x3d071464be159963U,
  0xbe13f6d33dee1708U, 0xbd59e83c3c335296U, 0xbe31f14b3defe13aU, 0xbe8679fe3e0f4596U,
  0xbcd928613cb8afc8U, 0xbda4272b3e8949e7U, 0x3e83e10d3efb1fe9U, 0x3d9e9ec43e54abbdU,
  0x3e8473a43e94ac82U, 0x3dbc97aa3ea8f571U, 0x3d8154ac3e2aef2cU, 0x3ebc3f2b3ded8c69U,
  0x3d69782a3dff44a3U, 0x3d03f8503e95a96dU, 0x3ea24c313e1117d0U, 0x3d6ab3683e915c66U,
  0x3dc1ead43d2c7c2fU, 0xbd9644473e348567U, 0x3e834d873e725d01U, 0x3e08a46b3e19a147U,
  0x3e635ffebe04d41bU, 0xbdf59224bdd6a420U, 0xbda303733d9cd2e8U, 0x3df6595a3e43c1f9U,
  0x3d7c4a913e6423cbU, 0xbdc4084fbc0632e8U, 0x3c65bd763e96b116U, 0x3e1f23c33e38e6e8U,
  0x3e9d64af3c8e4344U, 0x3e4482c8bdaab35eU, 0x3d8a32663e55ac62U, 0xbe0d360b3e09ca65U,
  0xbdb1640a3e0d4546U, 0x3e41013abd5d5d56U, 0xbd78275d3e15ebd2U, 0x3e5bf6723defd93eU,
  0x3d8bc6943da10166U, 0xbcd40aebbdbb90b9U, 0x3e591a013e359997U, 0x3d65f8ba3e90a486U,
  0x3d8ef77f3cd077bcU, 0x3c95191d3dc54e16U, 0xbdd0cbcf3e7ccd1cU, 0xbc3997a9bdc72de9U,
  0x3d9857183da038b3U, 0xbd35276c3e7a87feU, 0xbe4dc0cf3cc3aac0U, 0xbde3e82c3dd1f6dcU,
  0xbc00ae343e036637U, 0x3cb864debdfacafbU, 0x3e02b5f23e207650U, 0x3df7788f3df0f4cdU,
  0x3e36df27bd71139eU, 0xbcfd25f43e0bb424U, 0xbd3b530bbd0d49a6U, 0x3e1c58e63ccf7a62U,
  0x3e6e04f43c03afd8U, 0x3d9ebcd53dd83837U, 0x3e10f2003e8ff025U, 0x3e443288bdad7144U,
  0x3d09d30ebd399f0aU, 0x3e57ba393e840ecbU, 0x3e0aa3703d7e3f04U, 0x3e1e6e273ea9544cU,
  0x3e53cc153e80c7ceU, 0x3c24a58c3b4d3eeeU, 0xbcfe06ae3e8499a9U, 0xbd13e5743e145c8bU,
  0xbc51a1c83e62be59U, 0xbd28082e3e130deaU, 0x3e004cdbbc1ad892U, 0x3e5a81d63d121f14U,
  0x3d5ab0babd6a6babU, 0x3e04a24e3cb7fbecU, 0xbe0ebb7dbd19ab98U, 0x3e512ed63e6a1810U,
  0x3dacfa3fbda2cae1U, 0x3e8f07703d14a187U, 0x3dc69b723e2e090dU, 0x3e9a8299bd8e111aU,
  0x3e179c4cbdf0f7f6U, 0x3e4f613b3d6d92fcU, 0x3e58a1e83cc2a57eU, 0x3d1e34d9bbdd0435U,
  0x3e139d48bde99310U, 0x3e93a0a63e65074dU, 0x3e15aaa53e8047f0U, 0x3ea556543eb52d99U,
  0x3d9bb6bf3ec6fc4eU, 0x3d7dc153bd7e37c1U, 0xbd1bce77be92389eU, 0xbd6a0b62beb2e732U,
  0xbed20330be4becb1U, 0x3c3f7bdebd024996U, 0x3e427e6a3ec6942dU, 0x3c46d8fe3e9d0bc8U,
  0x3d80c79c3ecbed82U, 0x3d6ee85e3cdac715U, 0x3c764b263e5d22fdU, 0x3e2b925d3d2683e2U,
  0x3ec20ec53d6bf636U, 0x3c96387e3e6d570eU, 0xbde3f41abd00feb9U, 0x3e71391c3c839ae3U,
  0x3ea41af9bea27d6eU, 0xbc67c711be48a880U, 0x3e8b8bb4bec723c2U, 0x3ede93f3bda2d26eU,
  0xbe820255bbfccfc3U, 0x3d8d8fd83ca6e4dbU, 0x3e89b28d3ca9fb82U, 0x3e930f813e81c541U,
  0x3e98d9283e6d1871U, 0x3e0da2f23f0ab809U, 0x3e1b320a3d68441aU, 0xbd0d5a173e04d829U,
  0xbd876f5e3ea3b91dU, 0x3d9b8f4d3eabea3dU, 0x3d00b4933e549ca5U, 0xbe76946c3c70c6feU,
  0xbeab9a36becfe598U, 0x3e069811bef17364U, 0xbe97d1183e406f7bU, 0xbd6e92c3be08d850U,
  0xbdc6f5bf3e61fdbbU, 0xbe9e23f3be6f8679U, 0xbe887ae9bf0d4968U, 0xbeb72062bd92db9fU,
  0xbd502781be841f4dU, 0x3de4bc87bd073ba0U, 0xbe29fb22be1c39b4U, 0xbe78e6c53b2df63dU,
  0xbe211c203dd5b260U, 0x3ee1ba0e3e7d0202U, 0x3e91cf523f07487bU, 0x3e6954153d125613U,
  0xbe0caeabbe3cde4dU, 0x3e8f0bac3e9b4581U, 0x3ea43d55bb7c5b3eU, 0xbd478aa93d95d5a4U,
  0x3d1d825abd9436ffU, 0xbedf2cb03d5799d5U, 0x3d3ff15dbee34c87U, 0xbe1ba6c43dfba6acU,
  0x3d7594553e950c10U, 0xbe2d431a3d64fb57U, 0xbe0126d73dda41bfU, 0x3e10bc633ec2e38dU,
  0xbd503dda3e0466d0U, 0xbe3b1a6dbde350c9U, 0xbda31b53badf91b8U, 0xbe4f6a793da02fd8U,
  0xbddb89453cea9345U, 0x3d371733bd562f86U, 0x3e07d1e3be36b1f0U, 0x3e03e74dbdf21d59U,
  0x3dfe712d3e015033U, 0x3dbd9b69be25f93aU, 0x3dc38a253d9bc592U, 0xbe04afa03e0b87ddU,
  0x3dcb3551bd9a7071U, 0xbe4510b1bd3d710eU, 0xbe3b8459ba7107cbU, 0x3e29cc1d3daf102cU,
  0xbe09f52bbda15c42U, 0xbdf5e60b3e3882dfU, 0x3e247dcd3e287352U, 0x3d9e5aeebdfdbdd6U,
  0xbdc07edd3e2de987U, 0x3de6374f3ccef2c2U, 0x3d79b2f7bdca24beU, 0xbe37b2fbbd98eea1U,
  0xbda2e7263d3613e4U, 0x3d8d368ebc2fe19aU, 0x3e0773d23c431194U, 0xbd36384d3d1d5a58U,
  0xbe166f17bd8215c3U, 0xbdfc172cbe5ad9b8U, 0xbe2fbb49be300d3dU, 0xbe131ffabd80c66aU,
  0xbdab86883d4aff4fU, 0xbda286bb3caaaddaU, 0xbd9eb328bc8d8960U, 0xbc8747103dec0fe1U,
  0x3d4452f0399aa03aU, 0x3e34103f3d860e95U, 0xbe3a5925bda78698U, 0x3e31f87b3dae2035U,
  0xbdfff8023d942fd5U, 0x3e00a636be38d024U, 0xbdd6cb2bbe137bb2U, 0x3cceb0863dc3c3c8U,
  0xbe2e1b15b8ca62a5U, 0x3dd719823d886ab0U, 0xbe50cbf1bd2b0eccU, 0xbe561fd13dcbd7afU,
  0x3da561c63da28757U, 0x3dcb1966bdfb29f9U, 0xbe314975bdda3fb6U, 0x3df2b8903d86ad62U,
  0x3daea92f3d708100U, 0xbd271a06bd9fbe0dU, 0xbe04d071bd24ce1dU, 0x3bfa8902bdd4ec04U,
  0x3e132659bdcdc5acU, 0xbe25d129be1804f9U, 0x3db02dc4be062b50U, 0x3d959495be27767bU,
  0x3cd199933d33d18bU, 0xbe196f94bd901591U, 0xbc9b3e67bddf3d85U, 0x3d7cd9a1be1f9051U,
  0x3dc0029e3de09878U, 0x3b8516593e8fc751U, 0x3e92555e3e033173U, 0xbe210601bdb5540dU,
  0xbec0b4363c010973U, 0x3e2ae93ebdbacdb1U, 0x3ea3b11fbd72da67U, 0xbdc629f7bdb05135U,
  0xbe57fac83c3da23fU, 0x3d5f2c923e49a005U, 0x39ffc381bc10b0f9U, 0x3e6faa103e19a5feU,
  0xbdc95d4d3cf1bf8dU, 0xbdaa79bc3df4876dU, 0x3deb62c03e68ac0eU, 0x3e173638bd85f86aU,
  0xbd9ebaafbd87ce75U, 0x3dae2d7bbe906db9U, 0xbe23fd523e1fee84U, 0x3da2b6183e6c53a0U,
  0x3d8607d03d67230fU, 0xbde79291bbdb2b8aU, 0xbd8841f3be104f78U, 0x3eb2e2243d1bc933U,
  0xbd8353033e4b317dU, 0x3e47255b3e4c5b64U, 0xbc157890bcc3e12aU, 0x3e8ab5273d9cef52U,
  0x3ecf640f3e0ad51aU, 0xbdf524593eb02889U, 0x3e0b7fafbdb33dedU, 0x3e397a593e7ffc59U,
  0xbdb5ac0d3e2db1f6U, 0x3e2132a93dead46bU, 0x3c0b473fbc852802U, 0x3d8b4fd7bda91488U,
  0x3b34ce6fbe475532U, 0x3cc81d57bea0c82eU, 0xbe459ac53e7d350eU, 0xbe42bb813bd31983U,
  0x3d42ecb43d85577fU, 0xbd69c995bdf7fceeU, 0xbeaf0167bf0c57efU, 0xbd0489ebbd557abbU,
  0x3e1b21cbbe1da1d2U, 0x3a562275bc556337U, 0xbdc368593d20a355U, 0x3e243c033d3f1b90U,
  0x3d328896be03d469U, 0x3d7232dd3e8db174U, 0x3debb8603e1d5d92U, 0xbdefa7903dc1f295U,
  0xbd970c633e0d8b75U, 0x3c1acdd23d900781U, 0x3e5426cdbddf90bfU, 0x3e6dd4be3e637973U,
  0x3d17e57a3e9f1255U, 0xbe86df5b3e49f655U, 0x3e96de67be83be61U, 0x3c7289e9bb1cef21U,
  0x3a92663d3ea487dbU, 0xbe409ebd3d008403U, 0xbe1b66f3be02f8a2U, 0x3e816d083dd83e06U,
  0xbd959ba33d425b04U, 0xbe0f6982be43f348U, 0xbd9924403ddd216bU, 0x3db827dd3e1ca384U,
  0x3ed77835be333d43U, 0x3e5e892f3dc684c8U, 0x3cdcabe03e91b1a6U, 0x3ead0f683e88269cU,
  0x3e42d9e83e744f25U, 0x3e6a20763e8023f4U, 0x3e7c0a7abe78b42dU, 0x3e6dbf19bdcab514U,
  0xbd908c493dad4777U, 0x3c822b953d7749b6U, 0xbe03ee6fbd797da3U, 0x3dc499703e0862cdU,
  0xbdcd58f63e7e9071U, 0x3e414c7c3e346e60U, 0x3e8d3955bd0b7a40U, 0xbdc33bcb3e357702U,
  0xbeaed2fa3e6246bbU, 0x3bd1916c3db2eb3bU, 0x3df487d03e547dbdU, 0xbe8d215cbd5cf752U,
  0x3e86cae33c8aa9bfU, 0x3d9e7a14bd690a61U, 0x3b75c525be272840U, 0x3db44f62bcb84217U,
  0xbea9eaedbdee9d93U, 0x3de30bc9bf086725U, 0x3dd340463eb5a7c4U, 0xbdc5d37ebcaeb258U,
  0x3e6765143d8ba401U, 0xbe9af69cbe843206U, 0xbe1ece663d71e62bU, 0x3e1ee8c1bcebb3dcU,
  0xbd8baa013e63d334U, 0x3c96d0e13e2696abU, 0x3e9f6a233e5935cfU, 0x3d4032323e18c852U,
  0x3d8bd705be714f83U, 0x3e7ed6323e6a2eebU, 0x3f067c363ebc53b1U, 0x3ed487dd3eaf82f8U,
  0x3ba1edd9bd028ceaU, 0xbcf8cd333e65ebf7U, 0x3e9b66853df7a1d5U, 0x3da318e43d1a18adU,
  0xbe4ffd50bc8e4f1aU, 0xbe809fc7be1b7f29U, 0x3edc83b4be86485aU, 0x3d282dd53e851f86U,
  0x3e2526163e898e7fU, 0xbd9712d0bda8b476U, 0xbc9b6a1fbd80a461U, 0x3c9480a1be18c73eU,
  0x3d8c4dc6be9cd1b1U, 0x3ed901d43d997f14U, 0xbde9c6713db55cd6U, 0x3e281256bdac758aU,
  0x3e05fd8bbdf68e59U, 0x3d5c355e3dab8213U, 0x3ec5f462be2a8bddU, 0xbe362b87bea96087U,
  0x3eba5eee3e1ed228U, 0x3eb80f6b3ea56994U, 0x3ece4f333eafa360U, 0x3eb73dfb3d292a29U,
  0x3e89a9533e48ea27U, 0xbe674625be48bba6U, 0x3deea6d73e76a85fU, 0x3e436865bd6a27b3U,
  0xbdfb2f6b3e0132e9U, 0x3e7c70293e30b853U, 0x3d6466ec3dde1bb5U, 0x3e7d17b03e53e123U,
  0x3e3bbd0bba2c32cdU, 0x3e895c823c6204e0U, 0xbdcb6c143e8a6b2aU, 0xbd747ea63e3d549cU,
  0x3ed567053dc9168aU, 0xbda12f233e856afeU, 0x3de571343e2db3d0U, 0x3e3698aa3dbb9f02U,
  0x3de309b93d2f630bU, 0xbca81c203d3aa386U, 0x3d197d06bd3eef58U, 0x3e9d31313e9e2a0fU,
  0x3d534c503e0f6038U, 0x3e02108f3e4d91b8U, 0xbc9d8f263dfb17e1U, 0xbb2f19d3be7fcfa5U,
  0x3def03413e11b7d3U, 0x3e3275643ed2ef02U, 0x3ddeab153d90d4ddU, 0x3d702ffa3ecc701eU,
  0xbbb59f703e600171U, 0x3ec40a3f3dcc2ff8U, 0x3e0acda73e812da5U, 0x3defd7de3ddd2a2cU,
  0xbbef2a68bcba691bU, 0x3eb6f919be04dd2fU, 0x3d915ad73d8701f2U, 0x3e0ea1833e968700U,
  0x3e4dbff33e479efdU, 0x3dafe12a3d9a3cc4U, 0x3d83727bbe3e1ca8U, 0x3e9152733e5f87ceU,
  0x3d9992cd3e5f45b7U, 0x3e9f6a0d3e825df6U, 0x3eb11cda3e61ae70U, 0x3e9b3eaf3e582f78U,
  0x3e4995ff3e039f9fU, 0x3e1d29db3ef9bc19U, 0x3e98d2ab3ebb63d0U, 0x3e867570bc8ff727U,
  0x3da73f243e7760d6U, 0x3d6c93403ed4a6cdU, 0x3e31166e3df10387U, 0xbdf0c85e3e8f3868U,
  0x3d82a3553e92d81bU, 0x3de5e1993e6d1d15U, 0x3d8729293e6f6d68U, 0x3d63d9303e2eaadaU,
  0xbc0076983e4811f5U, 0x3d04f6433d358a66U, 0xbd6d0fe33dfc095cU, 0x3cfcdcd63e82e01fU,
  0x3d2997bfbde2542cU, 0xbdf129babe000f61U, 0xbdff7d95bd9eb1a4U, 0xbd68139cbe07c6cdU,
  0xbe691d37bdbf984aU, 0x3e6048ea3e04d96eU, 0x3ec4a9ba3e8f6469U, 0x3eaaa9633eafc694U,
  0x3e3220b83e97e4c6U, 0x3db2417bbde943ddU, 0x3bbf4af7bdc8be25U, 0xbe948b483c9b70a0U,
  0x3e79cd3bbeeb2b7aU, 0xbe0ececa3e3fd48aU, 0xbe0852ea3d667555U, 0xbd0a8435be7d74cbU,
  0xbd4fc3db3d52e12fU, 0xbe2f7144bea738dfU, 0x3e77486fbe71df26U, 0x3e48422b3eca6546U,
  0x3ed307023eb4f2caU, 0x3e7701f53ea01b6fU, 0x3c29e2363e3af820U, 0x3e1b60f03e3e609bU,
  0x3e7f53103e393046U, 0x3c5696123dfae290U, 0x3e12ea083cc2baabU, 0xbe8b3f7abd5ab36eU,
  0xbe836256bd5087cdU, 0xbebb22b93a67cd37U, 0x3e641044bd10af1aU, 0x3d0bf2523e0ddbf2U,
  0x3e4e53e43e0cb210U, 0x3d455773bdc1b06eU, 0xbdcb8809be70e2faU, 0x3c9e47cdbdb49e4bU,
  0x3e4d03b03f000cfcU, 0x3e2e1e423f0f4852U, 0x3e34c9ae3e3757edU, 0x3e1e75debc8d94a9U,
  0x3ec8fd81be3e440fU, 0x3e869b533ebd859aU, 0x3ef2a27d3f185e36U, 0x3e3ccd553ea56518U,
  0x3e9c5393bc1b3527U, 0xbdd0f5533e7c7b19U, 0x3e93256b3d4f31d1U, 0x3eae1efd3cfd18c3U,
  0x3e1c69153e9102dfU, 0x3e170f9dbe177fb0U, 0xbe8a80c5bee5d19aU, 0x3d3869b2be609511U,
  0xbe61180dbb1b6b60U, 0x3ce57a85beca015cU, 0xbe8001933d591d4bU, 0xbd4068f33e0c199dU,
  0x3ddbcc47bea23f11U, 0x3eec53b1bd4c1132U, 0xbe0f54fc3e8d6960U, 0x3e73e1c0be000909U,
  0x3e4bbc02bd8aefb7U, 0x3d876ef3bd911d06U, 0x3e4cadd1bbff3944U, 0xbe2703d6be7789e5U,
  0x3e5a88c23d730728U, 0x3e9a917b3d65c1c5U, 0x3e2fb50c3e28422cU, 0x3e8a1d363cbee14eU,
  0x3e97f4513da2fbc3U, 0x3e4a3fd33dec39ceU, 0xbe294c90be32e99cU, 0xbe52fd24be19ba50U,
  0xbb81a5babe561a38U, 0xbd00d73a3e97aaacU, 0x3d2905bc3dfdb33eU, 0x3ebf05c63e75ade5U,
  0x3e8f6add3f0a07caU, 0x3e1efcc4ba5e47a2U, 0x3e1df1b23ea06915U, 0x3e01aaf53e2c6b6eU,
  0xbcb5923e3e69e6a9U, 0x3e25e03e3ee606f2U, 0xbea483883eb3cea4U, 0xbd5611ddbc382bbbU,
  0xbe59e9f3be86c006U, 0x3cac86b7be48c757U, 0x3e490ef8be4f60c8U, 0x3be8ce433d038a38U,
  0x3d4373793de78984U, 0x3e731adabca55e95U, 0xbce023e4be650aa0U, 0x3dda6bed3e279521U,
  0x3dacab573e4f1657U, 0x3f08cde9bd0e39edU, 0xbde8e8de3d89ba5dU, 0xbdca790c3dd9fd74U,
  0x3e05287f3e3f9bf1U, 0xbd8299283d4d2305U, 0xbb2dbb343ec896e1U, 0xbd994a5cbd4d6cc3U,
  0xbd860e25bea8927fU, 0xbd88ecdebe364827U, 0x3cce807a3bf5652eU, 0xbd97f8a2bd574b8aU,
  0xbeaf66923decad47U, 0x3b93c073bea71759U, 0xbecabe3bbea69ce4U, 0xbd119a62be9337b8U,
  0xbd39e9c0be82a4faU, 0x3b848348be9eab9aU, 0xbe5d0d883d8e2ff3U, 0xbd22b0eabdc89c3dU,
  0xbd3a40353df42470U, 0x3e6ce7133d02a1d7U, 0x3ee961403ef71a23U, 0x3d6aa49d3e86a93dU,
  0x3e785a513e31ec26U, 0x3e9bcd133edb9645U, 0x3e9ac9323b692426U, 0x3e3145ff3d7a83d7U,
  0xbd699f1b3e8eca55U, 0xbef0a4593d6bc62bU, 0x3daeb38dbddc6292U, 0xbe4fed4dbb8cf1edU,
  0xbdbc35b73e41d787U, 0xbe7dc1063e8358f2U, 0xbc6160f13e93c6bbU, 0x3d618fd63e558385U,
  0x3e311704bdd103c9U, 0x3d4f32723d31ffc4U, 0xbe97390d3e22850aU, 0xbe33b4aebe3c8454U,
  0xbe3f143fbe933563U, 0x3eadd6e03d50208cU, 0x3e8dc1833eb799b1U, 0x3e90727c3eb66ed0U,
  0x3eab66ce3eb8a7afU, 0x3e9f5bfb3e871143U, 0x3e8659713e0888f0U, 0xbd7b2a1bbca0a50dU,
  0x3ddadd403e406208U, 0x3e0f12c23e61ed01U, 0x3e83fed43e3fdf50U, 0x3de6c1db3e1c98a8U,
  0xbe4d45883d9c9c91U, 0xbd1803753e2a04b4U, 0x3e84e4df3e7b94c2U, 0x3e27c3bf3d229438U,
  0xbe223a513ce8a40bU, 0x3ed3079e3e9c9f51U, 0x3e94673b3e1058f9U, 0xbe4b99c1bd52c37cU,
  0x3ea035f5be054321U, 0x3ce1aa9c3e1b4040U, 0x3eb53f473a547fb4U, 0xbe056a063e06cd3bU,
  0xbde398e6be395964U, 0xbea38f11be1f9f50U, 0xbb34b8e83ddfd6fcU, 0x3e00bd5b3e0ffc2aU,
  0x3df853673e217184U, 0xbd8c7ddebd0ff221U, 0xbcba0bbd3e8ebb72U, 0x3ea492923d1a31c4U,
  0x3ea6d3143ed99fbcU, 0x3e38f0fa3e51b764U, 0x3e4bdb7dbdd04ae8U, 0x3e92a7e9be03beb1U,
  0x3dc71ceebe720e14U, 0x3e268f0bbcf8f390U, 0x3ee91d0c3ea441e3U, 0x3e1093323dea29e5U,
  0x3da454b23ea2f384U, 0x3daac79b3e255071U, 0x3d9a6d0fbd2aa6cfU, 0x3eb412073d7647b3U,
  0xbd88220cbe174282U, 0xbea39a8cbea2cbc3U, 0xbda19a7fbf06842fU, 0x3ccca1febc3d19fdU,
  0xbe0fa62ebbd2b31fU, 0xbc421908bea14821U, 0x3e2a00563e05bbb6U, 0x3dfceec23cd9de58U,
  0x3e691d3e3ca597bbU, 0x3d0179f1bdd05785U, 0xbdaccd7f3e6e4d2aU, 0xbc91f9b13db4df70U,
  0x3d7d6d1a3d2a863dU, 0xbd19092bbdaac46bU, 0x3e8935f5bd7726c2U, 0x3e0bdb463c22595dU,
  0xbd6443133d098dc0U, 0x3d85df8abe517b50U, 0xbdc13d33bdb9e05fU, 0xbda9083b3d5a7b3eU,
  0xbe713dfe3d828817U, 0x3b24a55ebe505ce3U, 0x3e92c59b3ec0216dU, 0x3ea8ab6c3ecda69fU,
  0x3d3a18843e2c5fe5U, 0x3e77cbf93e938411U, 0x3df214f3bc11f586U, 0xbdd99421bd12e44dU,
  0x3d2da1a0be20f59aU, 0x3e1b8b8c3e0a7449U, 0xbdc1b2303b3f223cU, 0xbeaa7a32be8ce911U,
  0x3ea22503bea8e03bU, 0xbe2e15a6be9a2f69U, 0x3ebb5058be60e8a3U, 0xbdde6cd73ea983c5U,
  0xbd9c2e143cb877ecU, 0xbe9a4ebc3b81b97aU, 0xbde89223beb730ffU, 0xbe3144e8be30d88aU,
  0x3ec5df1a3e33e225U, 0x3e0bd1a03ef54f93U, 0xbed7505e3e6d3d8cU, 0x3d85852dbd829875U,
  0x3e499a6b3cd32b54U, 0xbe4ea6823ec7997bU, 0x3d894fc4bd6891c5U, 0x3e6560f73e858b7aU,
  0xbd64370b3d1ece59U, 0x3dc22f43bdbc1eafU, 0x3d0ca92ebe0b96f3U, 0xbd5828a8be0cc9d1U,
  0xbd4cea853e3ea5a3U, 0x3e50918d3d50ff65U, 0x3e75568a3e0f1746U, 0x3d25daefbd3ffe7fU,
  0x3e101bb5bdd522c2U, 0xbe2a803b3e2745daU, 0xbe9a8c3cbc669edfU, 0x3de3f1d73e52442aU,
  0x3e9af2e03d8026f3U, 0xbe399e323e80cefdU, 0x3ec244883ce9c0f1U, 0x3ed23ed23dd92ef7U,
  0x3e95a54d3ebb0397U, 0x3e2ed2ce3e162f4eU, 0xbeb885c03e10e8a0U, 0xbcde3ac8bd8bb29aU,
  0xbe891162bd4032adU, 0x3e376dc6be8c6dcaU, 0x3d2584b83e4691beU, 0xbf14f471be32e77cU,
  0x3e1dda02be5002d6U, 0x3e8ba5bfbdbe6204U, 0xbe9a96753e2926eeU, 0x3db498c23dcb532aU,
  0x3d968dcebdcb4a16U, 0x3e3fb841bdf67dc2U, 0xbe6fcba73d90dcfdU, 0xbde1a7a5bd4ab5e3U,
  0x3e398951bdfd6e29U, 0x3e212ab63e2b979cU, 0xbe3e4bc8bbf4aabbU, 0xbd2547d03e05de41U,
  0xb6c6f613bdbd684cU, 0x3adbe9fbbdaefd2fU, 0xbddc2af9bb1bb8e5U, 0xbe1b98aebdab729fU,
  0x3e36cc9dbda611d9U, 0x3dd860aa3d9f31b0U, 0xbd9566943e1421d4U, 0xbe409030be1a0bafU,
  0x3e25a4c7bd3f68ecU, 0xbd6ad33bbe299325U, 0x3d83139bbde69358U, 0x3e1ebeecbd3b6172U,
  0x3e17b6ebbd8b563fU, 0xbd583a263d5104daU, 0x3cda0d3abdc0dbb2U, 0xbdfe2febbd43e3d7U,
  0xbe4e8b723da47bcaU, 0xbb7bb696be3a5f90U, 0xbdab105cbe381ec1U, 0x3e1ae6ec3dfd0afcU,
  0x3e1d7d9cbdf311f2U, 0x3e1b0737bcaa8c9dU, 0xbbe0f813bd936b22U, 0x3dd91c3cbdea3af6U,
  0xbe4205ebbdf68724U, 0xbe27be9a3e2dfe01U, 0x3e035da83dbd703bU, 0x3d8be2c2bb62dd5bU,
  0xbdb8c9733d4cf41cU, 0x3e03ebc8bda611a2U, 0x3dac8885bb84f03fU, 0x3d01a07bbdd71802U,
  0xbe3bcc7fbd6fea97U, 0xbe4be0ad3d05f2c2U, 0x3e03a9b8be33163dU, 0xbe3b05ec3e32f6abU,
  0x3e2f26f93c9f64f1U, 0xbe105e11bda782e5U, 0xbe35bc4e3e03c67bU, 0x3aada88dbe42afa1U,
  0xbc0805cb3dd08a7aU, 0xbdaba3b6bdf31fedU, 0x3d82e8d13d3b1eaeU, 0x3bd3e1abbcf017bbU,
  0xbe0cd55d3d35fcdfU, 0x3e0ac6bdbdf64548U, 0x3e2ae6a6bdda7d57U, 0xbe1e3371bdadbeb0U,
  0xbd35df723da6910bU, 0x3e3b8ed4bd732531U, 0xbe4416d73dde9905U, 0xbddc5fabbe2e917dU,
  0x3e0758dc3e051dadU, 0x3d344dab3d80927eU, 0xbd94d8fbbbd3d9b1U, 0xbdc56c6dbe2ff2b8U,
  0xbe0af5b3be376f94U, 0xbdff7ab33df5b9e7U, 0x3e3211633e22bdf1U, 0xbddfe534be104240U,
  0xbe4b606b3e3a0a20U, 0xbdd0d69bbe11bcf6U, 0xbddbb6d6be4a7487U, 0xbd58f55abe292655U,
  0xbe44dda23d8b8f94U, 0x3d5d175b3dcd46b2U, 0xbe347dc3be47898aU, 0xbe45adef3d4a5088U,
  0xbd7a6c973e2d6106U, 0x3d0a929c3d03e1aaU, 0xbe455e6b3e09c76aU, 0x3d7600d0bc16bd7fU,
  0xbdd52e403e1de227U, 0xbdc44f8c3ddbffefU, 0xbe15709fbe123b4aU, 0xbd5a8270bcd39e60U,
  0xbe0a8980be0a48cbU, 0x3c39bfc0be2043ceU, 0x3dabbe82be146b0bU, 0x3dfc43c73daeda66U,
  0xbe13443eba87f818U, 0x3e29028d3cc6a91fU, 0xbe2ac6633d15ba1eU, 0x3e2076cabd9f204eU,
  0xbc1b8af3be27597dU, 0x3d01c013be00f0edU, 0x3e0393663dac7cb4U, 0xbe4149a8be360d9dU,
  0x3da46677bde1ebe6U, 0x3c5489bd3e028153U, 0xbe290f9b3de430c0U, 0x3e0e0ef13d65d1faU,
  0xbe1b8d8a3d55923dU, 0x3e336761bca97aeeU, 0xbe4b71babd0876f3U, 0x3e15b3acbddba2e8U,
  0x3e15758abe0d65abU, 0x3dd60132bd714f54U, 0xbe18e41ebd5c1b06U, 0x3e2edc363e0b9af9U,
  0xbca25ff93da0435aU, 0xbbae3e9c3dfaabceU, 0xbdc5602abe3adea2U, 0x3d5951c73d29ce99U,
  0x3d9d46a5be0d76d2U, 0x3c0faa71be25a75aU, 0x3df96fe53da4e392U, 0x3ddb9da0be2269bcU,
  0x3e049d25bd80bb09U, 0xbd67a76e3e124d45U, 0xbe2cd51abd8ca503U, 0xbdd7fe7abe04efe5U,
  0xbdaf7108be1166e2U, 0x3c84471b3dcca31bU, 0x3e01bf0cbe2b72adU, 0xbe11ca403e0d39b6U,
  0x3e2fd87b3cf96337U, 0xbd80df0abe1618f3U, 0xbe35d2adbdfa8bddU, 0xbbc685b9bd8cbb9eU,
  0xbe257c1ebbf49d32U, 0x3c9dfd45be012c67U, 0x3e075937be28db9aU, 0xbe3353133c090a5aU,
  0xbdeb40523e16d820U, 0xbdb401473d65e267U, 0x3d9efd20bd9aaca9U, 0x3dfd28283e034ea2U,
  0x3e622f93bea38067U, 0x3eada99e3e51aba0U, 0xbd73b53d3d7912c1U, 0xbdfa4a9f3e5d09f5U,
  0xbec392d73da83cc9U, 0x3e983ffd3edfa39fU, 0x3e4a5c493ebb04afU, 0x3e3bf8543e9728aaU,
  0x3eb102183f0c720cU, 0xbe07d3293e350177U, 0x3df30c703e42b5d6U, 0x3e2cd1103de17bbdU,
  0x3e9ae8813e2c3527U, 0x3e3586fb3e30bbbeU, 0xbe4c2759bcf31459U, 0x3e4308253ddc997eU,
  0x3c65dda5bee0a6e1U, 0x3cfad8cfbc5dfd8eU, 0xbd9fa00cbdcd4f06U, 0x3d785b3fbd9f5c22U,
  0x3e0f45dfbe0fe547U, 0x3d93b6f3beae227cU, 0xbc0a9b883df66918U, 0xbcdade9d3ede08eeU,
  0x3e6161e93e4e14e3U, 0xbdbc3f543e90e9ebU, 0xbe7d6c97be6e4528U, 0xbb9402a53cf5849dU,
  0x3e8f7955ba288cbbU, 0xbeab50723e387fcaU, 0xbcf99abb3e3efe4cU, 0xbed79f69bee0930eU,
  0xbe2a2010be52923aU, 0xbd16cb8bbecdbef4U, 0xbebb795e3ccd779eU, 0xbe461e983c76f9f5U,
  0xbd0a0c083ccc2a16U, 0xbebd76e4bec4b985U, 0xbf060149beadaf36U, 0x3e041aacbe3c6303U,
  0xbe0c97e7bdb7c351U, 0xbd8d789dbe7580d3U, 0xbe6b2c6abe8a5f82U, 0x3e3c58eabe8cd033U,
  0xbe42aa233d3a77ceU, 0xbecf641dbede16b4U, 0xbe9736783e8d4adfU, 0x3c9aa31abeb381b1U,
  0xbea90479bed97b01U, 0x3db784f63e0894d2U, 0x3e30a0833e7ba3dfU, 0x3ca7877e3d4a9326U,
  0xbc61ac603dbbfebfU, 0xbed6834b3d45ef63U, 0x3cf152b3be15688aU, 0xbe9177143e4a5d12U,
  0x3e813c253f03acf7U, 0xbe93eba63c76c08cU, 0xbcfeca6dbcbb021eU, 0x3f16f2b93f0fbbd7U,
  0x3e8407df3e2bc82aU, 0x3d7120b13e482168U, 0xbe6e97d93d068a7eU, 0x3e7efb17bdc1cf3bU,
  0x3eab265cbdb7adb4U, 0x3e24b0a63d56f4efU, 0x3dc7cd14bd5bb02fU, 0x3ddef00bbda1bd2dU,
  0x3e1835a93cfd5ae5U, 0xbe10747dbe34963eU, 0x3dc7bf38bd699242U, 0x3d4dc8e2be38d462U,
  0xbe2238683e4bf255U, 0x3e4bfa243d9a60a1U, 0xbe56eee6be1e5d4fU, 0x3dc8ffe0bdfaad38U,
  0xbe8f1b793e491704U, 0x3d67a92b3e823348U, 0x3d9f22133d990699U, 0x3d80d8d03e05bd12U,
  0x3e0af4373d1cd040U, 0x3eaea6af3e7b6cf8U, 0x3e9de62f3e498247U, 0x3e6d58403c50c42eU,
  0xbe6c7f86be34bd6fU, 0x3ca182f5be2a5984U, 0x3e7d8416bdd82049U, 0xbd83c871bdfbb435U,
  0xbe1242d9bcc85585U, 0x3e8f2a14be266483U, 0xbc8ef06d3d8b00ffU, 0x3e7ed5c8bc8bec83U,
  0xbe73ff26bd30db87U, 0xbe700110be64e7cbU, 0x3cc438e93cdb7748U, 0x3d0900ccbbb7e361U,
  0xbe31cf313e5697c1U, 0xbdcc20903e237cbfU, 0x3e63ae23be0018caU, 0xbd44a136be5e8c5cU,
  0xbc92281cbe6f1b5bU, 0x3e2fa5a83e4151deU, 0x3d9bac4a3eb370c9U, 0xbe682583bd199af7U,
  0xbd9c3e27be53dd4cU, 0x3dc66880be266ccfU, 0x3e384218be3fe536U, 0xbc8c05513e2e74a9U,
  0x3d1fcbe43d1803dbU, 0xbd64cc34be853262U, 0x3e2d23c33db9ec1aU, 0x3e2dd88b3ed64f52U,
  0x3c60f4a93dcce590U, 0x3dbcc8353e0f622bU, 0xbdf17627bd6d2883U, 0x3e03134abe599455U,
  0xbe2b1976be8638e8U, 0xbdb878ffbcf1eb5eU, 0x3e0ec750bbdf6ac3U, 0x3c857f353d3e6284U,
  0xbdb14313bcee7e57U, 0xbe06221a3e72d5daU, 0x3ea89bdebbdd9a69U, 0xbe4c52143d4f6f46U,
  0x3dc079f23c82e840U, 0x3e06cfd8bd285aa0U, 0x3e807cad3e24efecU, 0xbe186c3cbdc0f3d6U,
  0xbeb1e67cbe8797e0U, 0xbde3806abe5d88f5U, 0x3e7e27f63e694ddfU, 0x3e61bbecbd114214U,
  0xbe064c2f3e98bd19U, 0x3e0d19703e8f5d3cU, 0x3e5f2d323e13981aU, 0x3e166f0b3e77b20dU,
  0x3dd4c7bb3e9bf475U, 0x3d7959773d6d2412U, 0x3ec3c1b33e55358aU, 0x3e8216993ea30134U,
  0x3cde56ca3e55b82aU, 0x3e8c5a5bbd20496eU, 0x3d88a4563e13f9fbU, 0x3e790aa33e54b3ceU,
  0x3da31b97bcf6bf64U, 0xbd914ddabe0bb652U, 0x3cd2b958be035becU, 0x3eabee8a3d8f799cU,
  0x3e74e4633e57d22dU, 0x3e04736bbcbf06e8U, 0xbd40af97bd1054f4U, 0x3d9715f43edd74e6U,
  0x3df9dd7e3ef980b9U, 0x3dd0d2dc3dae0c79U, 0x3e25c385bde2cd52U, 0x3e3c0a5a3e883f10U,
  0x3e5dab143bb1c84bU, 0xbdd1e8f63e20d7d9U, 0x3e89a0af3d645a76U, 0x3e25d6dcbd513a87U,
  0x3e05b2f4be02ec89U, 0x3e0361f5bcb379efU, 0x3d2a294e3e6e82caU, 0x3e639ffa3dbd58baU,
  0xbade66093e8dbc4cU, 0x3cb1a042be0b812bU, 0xbe909098bdfd4a72U, 0xbc15a8abbe33721aU,
  0x3dc2f7373e977222U, 0x3be0b062be48b48dU, 0xbe63823e3d8447bcU, 0xbd1b5adabe46aacbU,
  0x3c96f2abbde69f7bU, 0x3e2d3dc5bdb791daU, 0xbe39fef83eb607ccU, 0xbd7a1084bdd6f82eU,
  0xbd998818be095b04U, 0x3e4e7e953e5b93cfU, 0x3efb9d263e9e4b43U, 0x3dd6c8f73e1ebbd8U,
  0x3e2099e13deee162U, 0xbd5d2c1c3e29b6ccU, 0x3dd7e361bca2f4f4U, 0x3cf3b7753e2ec3d4U,
  0x3cd767a13ee8cb7aU, 0x3e545664bdce1f3eU, 0xbe4384ed3d7a60ddU, 0x3ef44c143e192f92U,
  0xbd5d47143e1e4ce4U, 0xbdffa354be0dd627U, 0xbe024e7e3e1074c8U, 0xbd2f423c3d0ca2d0U,
  0xbdcf11fc3ced5380U, 0x3d104c20be22cec9U, 0xbc12f470bd2411bcU, 0x3dc5d190bdde2e27U,
  0x3d3df90cbdbcf8bcU, 0xbe358e83bdaf33b1U, 0x3cd2ce883e30527cU, 0xbd04f3403c285490U,
  0xbce579083e27d630U, 0xbdbd606fbc9891b0U, 0xbe06346d3d507418U, 0x3d28c1a0be07c076U,
  0x3dcc75943deb853cU, 0xbe191a88bc7e1720U, 0xbdc4b3f3be070082U, 0x3e34f6d4bcba8a30U,
  0xbdf01792be17e11cU, 0xbe3c3f443dcdfc08U, 0xbc4f28303da9f28cU, 0x3d818a54bbdc2680U,
  0x3cfeb148be2e8059U, 0xbdadf406bdc4f719U, 0x3e0764a23c080e50U, 0xbe38d0263d862484U,
  0x3de36bd8bd3b7100U, 0xbe29d12a3d34c488U, 0xbdebbd1ebe0293faU, 0xbe2262d3bd99463cU,
  0xbe329354bdf07773U, 0xbde24ff63c8aaf10U, 0xbe0d78b43e1b605aU, 0x3e0164203dcefe30U,
  0x3e131ec83e153920U, 0xbe21ddefbdc84da0U, 0xbd4da37cbe3ebfccU, 0x3d8f42a4bb84a400U,
  0x3d8cd9e8bc6a0100U, 0x3d565ad83d2f3324U, 0x3d3f04e03d1c0424U, 0xbdffb856be1d1210U,
  0xbb4af580bcf9fdd8U, 0xbe3f5c76be3a7c42U, 0xbe3a9fa0be1173a6U, 0x3cf4d0d0bdf7e7c6U,
  0xbd9b19a23c98e570U, 0x3c62fbf03ddd56c4U, 0xbe3603af3d864d8cU, 0xbd82e85ebe370824U,
  0x3e461e86be331bacU, 0xbe33a0463d900b24U, 0x3e22faac3d886ee8U, 0xbcb75c783e0bb79eU,
  0xbe14c71abd800c48U, 0x3d7ea5203d16a224U, 0xbd90bac63dd963f0U, 0x3e04e7acbc546e50U,
  0xbcae21283c00a1e0U, 0x3e23b44e3c813600U, 0x3ded047cbe097711U, 0x3d0c8674bd473024U,
  0xbe3c3f773e1e9d50U, 0x3def79d53e02e4c7U, 0x3e8fd01d3e49930fU, 0x3e49d7babdadb954U,
  0x3df0d27d3ec8604dU, 0x3ec224463d694847U, 0xbcf2c78cbe7071cdU, 0xbe6330cfbe053373U,
  0xbd76a460be497fd1U, 0x3db7b2363d996b01U, 0xbd88680d3e628a2aU, 0xbe2b3101be22d6b5U,
  0xbc5a915f3c939355U, 0xbd83147abe104da5U, 0xbe051e8d3e3cba0cU, 0x3da18a433cde66efU,
  0x3e578b143df4875aU, 0x3bcbdc0ebea3c6afU, 0xbd6ab9c6bd132ec2U, 0x3d20b6fabe6252e1U,
  0x3e5d6f103b5a4b93U, 0x3ee1daed3ef0a0e8U, 0x3e9fa4ed3eb40409U, 0x3d52b2e73b01066bU,
  0x3ddbb1c23e1331b7U, 0xbdfc7b71bdee5694U, 0x3e22c046bcda10d6U, 0x3dcc75653e6df8a7U,
  0x3e611dcf3e759569U, 0xbe9710123eb5d535U, 0xbe3cb8ea3dbc2ffaU, 0x3cd0c135be9e3ddeU,
  0x3e4d6898be260988U, 0x3ea4b34a3eaa9f95U, 0x3e264d62be603a1dU, 0xbd29e7813dc42e8fU,
  0xbdae41423b459ad0U, 0x3e03c2763dcb41feU, 0x3dadc6cc3e43b353U, 0x3e49b8933e746b63U,
  0x3e819b333e711681U, 0x3e38090b3e2e4bcbU, 0x3eaae6783eb9e7b6U, 0x3d325cb93e343b95U,
  0x3e831ffd3e2bc80dU, 0x3e0a29033e4e4229U, 0x3e5f73cf3e6c7549U, 0x3df962eb3e81703dU,
  0x3e8427a2be228437U, 0x3cede9d73db3ace2U, 0xbe41e0f93cf782fbU, 0xbd8d4ecdbebe97daU,
  0xbdc0467bbcbb803eU, 0xbd8289f0bcaf0bf5U, 0x3e036f273e5727feU, 0x3b044df0bb8856c2U,
  0x3df00b50bde4d863U, 0xbd08f3923e8e68efU, 0x3e505ca43e4520b0U, 0xbca3354a3d02c596U,
  0x3e7ab8323e81b2a0U, 0x3eb6b9bfbd6dcbb3U, 0x3db41c4d3e0ef12bU, 0x3ec7627e3c9c05baU,
  0x3e0dd1663e2bfaeaU, 0x3e4e1034bdb9b2e1U, 0x3e02a62bbdd1204eU, 0x3dba3d1c3e228ff1U,
  0x3ef103a23d30ea1aU, 0x3dd63bd73e2b6b8bU, 0xbd6a53c9be3e73c4U, 0xbde82a79bd3d633cU,
  0x3e7871073e261462U, 0xbdc72844bd52cfddU, 0x3e2835d63dfbfa8eU, 0xbb9292753d7c4f6eU,
  0x3c95bb65bdc1bf0aU, 0xbdf3095f3c8b6844U, 0x3dcf043e3d85d8fcU, 0x3d63740b3e253741U,
  0xbe2537ba3dffadc7U, 0xbbfb7d7b3dc11459U, 0x3cbfae103e1c2111U, 0xbdaf4cfe3da47fe2U,
  0xbd8c34b03d96e8c8U, 0x3e881bb93e82915dU, 0xbda9f1fb3deee55eU, 0x3ce0a14d3e71b70dU,
  0x3e2d39debddc3e58U, 0x3e4251be3c46edc5U, 0x3e81cb3f3bf5a9c8U, 0xbdb4471e3e5a5466U,
  0x3a9481c83e05fea1U, 0x3eac08a1bed582aaU, 0x3e3c0e683e6e4313U, 0x3d983072be045c8aU,
  0xbdc8ddb0bdcf1a36U, 0x3d2ae63b3e127f14U, 0x3e11b24f3e31d147U, 0x3bef6898bdf7549eU,
  0xbe05c48dbd647cbaU, 0xbe663f33bc3af7c7U, 0x3e458767bd2b273eU, 0x3df13d733e0d33daU,
  0xbcec675c3db1d672U, 0xbd2f2a923e2d2000U, 0x3e36838b3ec10441U, 0x3dd1d0833d3e208eU,
  0xbe261a503d0ba268U, 0x3d02fa09bcf4688aU, 0x3d8be4313d71779eU, 0xbe1ce17dbd1bc50cU,
  0x3e3a24fd3d2229aaU, 0xbddb1927be884555U, 0x3e551789bd1093dcU, 0xbe06fc483e4a7243U,
  0x3d546e2fbde7b856U, 0x3e19e73fbe18e9d8U, 0xbc3ad08d3e36b9bcU, 0x3e068d5abca4b177U,
  0x3dc5988dbc1e334bU, 0x3e559d1bbc30d80aU, 0xbccd51f5bd70a349U, 0x3e090ad1bdcf639dU,
  0xbd7ec8b3bcc2132dU, 0xbda187aa3e37a9a1U, 0x3e8248143cad5db1U, 0x3d7f36a83e300a02U,
  0x3c6ba7dc3d5de4c4U, 0xbe2bd1a33c314c97U, 0xb9cb1011bdcd725fU, 0x3e20c6fbbc1057f2U,
  0xbd307d5a3dd327c1U, 0xbe259301bd724f71U, 0xbdd707ccbd9963bcU, 0xbdcdf75ebcaa7cf6U,
  0xbe3304ba3d1c28c1U, 0x3e39431abe371c0eU, 0xbdd29bcfbdb46520U, 0x3d275d89bc43b2fcU,
  0x3da8a9143bb1f4e4U, 0xbc242f34bc7acd0dU, 0x3da131a3be312995U, 0xbdaa2c94be30903dU,
  0xbe4ac56e3d36b75dU, 0xbda421fcbde58f35U, 0x3d7e48293dcb808eU, 0xbda684ad3e1b925cU,
  0x3e00945ebdcd89edU, 0xbe02ccd3bd854bacU, 0xbe1696373cbb1948U, 0x3d5a14cdbb27caefU,
  0x3ca6565ebc7d2ac5U, 0x3d29a1a93e37ce52U, 0xbe2fe722bded4802U, 0x3c295b153e33cd49U,
  0xbe330f49bd45dbd1U, 0xbd92496f3dea37d2U, 0xbe3908483e0cfae3U, 0x3dc8787c3e1fa37bU,
  0xbdf055d43d2c730bU, 0x3e173f21bd370e64U, 0xbdafde293df90c43U, 0x3e252a9f3e120ee1U,
  0xbdbe87be3c0805feU, 0x3e1a70173e0a8b63U, 0x3e0154b1be4358d8U, 0xbd3852febdc2f178U,
  0x3d9adfb4bdaca639U, 0xbdff6d403e109e32U, 0xbd9091223e03b8bfU, 0xbdfd3822be1229d4U,
  0xbe1680b2be3805c3U, 0x3b98fa33bdfdada2U, 0xbcd00819bd8a87dcU, 0x3e18aad8be41858fU,
  0x3b709e05bdc93f83U, 0x3d04774ebd1b3a25U, 0xbd0f3ec0bddcf85bU, 0xbdb5ef143e258e6dU,
  0xbdb1f7bd3dd5e987U, 0x3db5a4ce3d6e35ffU, 0xbe40250dbd85d316U, 0xbe1ec118be240cc3U,
  0x3da86a4fbe382a0cU, 0xbe363e5c3e3c7285U, 0x3de55601be37990cU, 0x3d4f53bb3c14c819U,
  0xbe39433a3d8fb2e6U, 0xbe35b3903d01668eU, 0x3de64f21be195eb2U, 0xbd363f9c3ba649caU,
  0xbe217054bdfd1ddfU, 0x3c9701513e274c8fU, 0x3d8fdcefbd83c972U, 0x3e44f8c83d94c6f4U,
  0x3e4c7c943eb9ad14U, 0xbdaa3dd83e54f6b9U, 0x3e573933bd956085U, 0x3dfe3b60be4239a1U,
  0x3e21b9323ca57a3eU, 0xbe438e64be2ccbdeU, 0x3db16b6abd291277U, 0x3d71867abe4fd399U,
  0x3db32b99be9790b1U, 0xbe4e747c3dfd9283U, 0xbcf28dadbe032e1aU, 0xbe14a04fbe3b0d5aU,
  0xbdaeb27dbe6dcce0U, 0xbb9f0d3a3c59a050U, 0x3df4c6323bd50f98U, 0xbcc1ca01bdfc0522U,
  0xbd181cd5bc70e43dU, 0x3d4704d93e85d37bU, 0xbc65720bbd8d4d29U, 0xbe01d5a73e2302ceU,
  0xbdf9cca9bdeaf9b6U, 0x3e41555cbc3b3edbU, 0xbd9ed14cbe547273U, 0xbd61036dbe66664aU,
  0xbe539f6dbc1443bbU, 0x3e339dc03de4fd9aU, 0x3e3051d73e98c365U, 0x3de13bcd3e431cd0U,
  0xbe466726bddb8828U, 0x3e44d71f3c6efb64U, 0x3d476d523e19d03dU, 0xbde6034d3d08b80cU,
  0xbe10ba7fbd84318dU, 0x3c77720f3e756c5eU, 0xbe04a94f3e0935a3U, 0xbe5e629f3cf46103U,
  0x3e147fe23d32db10U, 0x3e65026d3e8e4a69U, 0x3e805d1f3e800471U, 0xbe80c3093ddf8ba3U,
  0x3c84f8cbb9c84aa6U, 0x3deb17a13d52d7f6U, 0xbdc0de5f3e18391cU, 0xbe5a6ace3dae1e2bU,
  0x3e012039be13d496U, 0x3e8548f33e78dea9U, 0x3dc539a73e72a11aU, 0x3e796b5c3e9651eaU,
  0x3c6080c9bd9e2cfcU, 0x3ce626993d045ca3U, 0xbea7fae1be9c8a4fU, 0xbe8cf4363d836b5cU,
  0x3d712d70bd27f438U, 0xbd81537ebe15ea97U, 0x3c47a7a53e237090U, 0xbd2e89203de39ec9U,
  0xbcd6542dbbbf5a4aU, 0x3c93cbf5bddec4d0U, 0x3d5bdbe7be6824ffU, 0xbe0818d8bc51dadfU,
  0xbe13119bbe3c246fU, 0x3da893ef3b146898U, 0x3e96bb033e7435b8U, 0xbcc9616d3ce6a8bcU,
  0xbee1c9d83d92d99eU, 0xbdb696913dd08763U, 0x3e451e9b3ea2f529U, 0x3e9668773ec4c567U,
  0xbbe2e6173c717e8aU, 0x3e13f61f3e79801eU, 0xbdf46e643e601d56U, 0xbec86cb5bd7a26e7U,
  0x3e7c9e64be502b29U, 0xbd8d6859be44ac82U, 0xbde2b4a33d5c1706U, 0xbdd314bc3daf40b3U,
  0x3ea68124be94dca5U, 0xbc50ccf4be805af0U, 0xbd37554bbca71bb1U, 0x3d8f90bfbc8278e9U,
  0x3efdd1053ec2ce65U, 0xbdcf73403e8c4d36U, 0x3e787eb73e1b3641U, 0x3dc752ae3e8246f8U,
  0x3e9bd9453eaa59d5U, 0xbdd5df5a3ec07974U, 0xbe452cad3e823369U, 0xbcf3fefc3e583d18U,
  0x3e9249373da93c87U, 0xbe89ed3d3f289f2bU, 0x3df08a35be9c9acdU, 0x3e0fa4643d19638aU,
  0x3e0dc4303e87c969U, 0x3edfd3463e67be06U, 0x3e03f65fbea4088dU, 0xbcc90e023eb01091U,
  0x3eabcfcf3e3beaaeU, 0x3d5c5cd7bdc41846U, 0xbc5a96733da6dad2U, 0x3e68e2a23e8087bfU,
  0x3ebf539e3e90c8dfU, 0x3e7eb989bcb57a74U, 0x3bd512d2be801989U, 0x3ea3af293db3e240U,
  0x3eb4ce9d3d9b134cU, 0x3e033f773eb9e2b4U, 0x3d94fadd3e44eb22U, 0x3e7f0beb3eb4501aU,
  0x3e4d9e3f3e4d292fU, 0x3e1437d83e73f7a1U, 0xbf0706933c41fa2fU, 0xbdb51f63be87296bU,
  0xb9cbbe7dbdbc99c6U, 0xbdc75d4e3e7f5418U, 0x3e16b72f3ea3d404U, 0x3d1c8378bd3704ffU,
  0x3eb528633e344e60U, 0x3e22a09ebd8fc391U, 0x3da434d4bca26789U, 0x3e30bbb0bca76867U,
  0xbc47a2ac3e57dd2cU, 0x3be11ce3bda9e2cbU, 0xbe73380a3e847114U, 0x3dc7950a3dd1ffd5U,
  0x3e49828fbbc4ba92U, 0x3deb2f05bcbad105U, 0x3e2e0541bbdc9dc6U, 0x3cff2c38bd6e7b80U,
  0xbd841dc43c440333U, 0x3d73e8d13c4ee7abU, 0xbc89ff753db48a7dU, 0x3e2d0f2ebc9db004U,
  0x3e95caa43e1e5b89U, 0x3e02cc81bd8fabb2U, 0xbbf0aead3e7bf7f1U, 0xbcfae2e2bc430bb8U,
  0xbd85ff6c3dd17163U, 0x3e00c10100000000U, 0xbc0f3a1b3e0d5526U, 0x3e318b113e0d898aU,
  0x3ed4ee69be31037dU, 0x3f0ef706be8a3bf5U, 0xbef1c6043e54243aU, 0x3dac65cf3dfa1a68U,
  0x3eeeabadbebb428dU, 0xbde262a43eac56c9U, 0xbe69d518be90850aU, 0x3e5ef563bee09907U,
  0x3e971aaebe9aec00U, 0x3eebdbb7bde64245U, 0x3d97e668bf38c5f7U, 0x3ed445c23c9bac00U,
  0xbe41f17d3f1e7fd6U, 0x3e11e1063eaa2f89U, 0xbe3bc3d63f10ce54U, 0xbe224f4dbdc0be76U,
  0xbeae0da43eb27903U, 0x3eadcf1c3ea4eb63U, 0x3e840c9c3e3d1393U, 0xbe23b08fbeb2f90aU,
  0x3ea34802be2c194cU, 0xbd93f6f33e6d99faU, 0xbea2b94fbccf6753U, 0xbc8731c23eff8f32U,
  0xba8d6244be3a9481U, 0x3d3e3dcb3efe3110U, 0x3d45f288bc7ea919U, 0x3e37ee35bdf67599U,
  0xbe3677043eff5531U, 0xbe1cb352bc967b30U, 0xbe65f5633ee25d88U, 0xbec6730d3e97c1dcU,
  0x3e112cebbdded556U, 0xbd7df6da3ee1cb52U, 0x3efa0d613e49ae57U, 0x3eb2fdcd3e01ccb9U,
  0xbf01ad93bf20733eU, 0x3ed4e0e43e8d2943U, 0x3e41f525bd7f5af2U, 0x3e27c021bf47fb07U,
  0xbebbe4703f16642fU, 0xbea47593bd7d671aU, 0x3d8b48abbd314799U, 0xbf2c2bb23e4da093U,
  0xbf477deb3e8ee38fU, 0x3e8c241fbe0e421fU, 0xbd7b95f43e50b412U, 0x3cc379f03f1a47c6U,
  0x3ebf5efdbe794ae8U, 0x3e5b8714beedaaf9U, 0x3f041b873e20ca4dU, 0xbf323ee9bf04cd5dU,
  0xbe85d93dbdd7ffbaU, 0x3ed53bacbd899947U, 0xbde84bd6bec5a0a1U, 0x3ea510253ead2dadU,
  0x3f0eee123dd63555U, 0x3ca2eed3bf075911U, 0xbc0c8bc03f41f114U, 0xbf3cb6333c57b074U,
  0xbe8ccc163d0d430bU, 0x3dc21f47be8b1161U, 0x3e255b26be5d20baU, 0x3e574c86bd913eadU,
  0xbd7961703e9faf17U, 0xbdb8755cbd9481b4U, 0xbe09a9533e9725d5U, 0x3debabafbcce9a4bU,
  0xbd2c6f70bda54eb9U, 0x3da5a598beb2cca5U, 0x3b11c200bd60a723U, 0x3e095e37bd476e53U,
  0xbe4642ee3e0425a8U, 0x3ce8e5a1be932474U, 0xbe02979cbe13db23U, 0x3e0064de3e26f90aU,
  0x3e7d401cbe892e29U, 0xbcf84cf0beab8d13U, 0x3d09ce58bdc25238U, 0xbc25a64abe8cf8d7U,
  0x3e1bcda43e3f99efU, 0x3dbd88b5be238bcbU, 0x3f154d50bdf5bf75U, 0xbf45f465bda93dd4U,
  0xbd62fc2a3efa695cU, 0x3e95ee68bf02becdU, 0xbd08aa6fbf3ad143U, 0x3ef67c0fbe052d39U,
  0x3ea3d5493ebabc63U, 0x3f1685b0bf33e5f8U, 0xbe9e7d303ef8789dU, 0xbeb9a2c5beb5cea0U,
  0x3ee2e0a5be38142dU, 0xbed9b4dfbe7e08cfU, 0xbe818b99bc3d7edfU, 0x3f10fa0d3f059a84U,
  0x3e0cffa83e61e612U, 0x3d3d29fb3ed230a0U, 0x3ed8faeabd8f1700U, 0x3cf0c2623eef03d3U,
  0x3d908f45be033c06U, 0xbe4d6411bb6a9ef3U, 0x3e41b0ab3ee8be26U, 0x3eabb4a63e3081fbU,
  0xbf077f393f0ce313U, 0xbefca7653ef765d2U, 0xbd4928e83e8e54d3U, 0xbe0c31353e2e2bb9U,
  0x3f0ffd673d7514ceU, 0xbe8dec1d3e127870U, 0x3daa35283e938b2eU, 0xbeb0ff0ebe0faa7dU,
  0x3da26908bd845b14U, 0x3d036753be2ed5b7U, 0x3df4fe38be02e370U, 0x3ee15522be25d3ceU,
  0x3e7bd23d3ee68b9fU, 0xbe8160803e03de12U, 0xbd58670b3f1de675U, 0xbedff2723eb01dc4U,
  0x3e62a9213e79c045U, 0xbeebabdb3d4fee9fU, 0xbd23190a3e91501aU, 0x3f318b08be41eb16U,
  0xbe3757bebd11d23cU, 0x3f149c1ebdabc448U, 0xbea126523e5d0f78U, 0x3ec873543e85ac85U,
  0x3f119d503e7c0632U, 0x3df4bde53e5443a2U, 0xbe54b6323e51cd96U, 0xbf0dec2a3d72d987U,
  0xbccce48bbf037815U, 0x3c2722d2bd8f963dU, 0x3e6fb9c8bf1765c3U, 0x3e9f4e37bf07c53fU,
  0x3ed8863d3e821d3eU, 0x3f057227be0b4fbcU, 0xbeacd65b3e1caf52U, 0xbec5f24fbe77d50cU,
  0xbf026c503f2b9301U, 0x3d1c01163db24918U, 0xbeaf75743eff326eU, 0xbd9277113e7a3ac2U,
  0x3efed521be3bb8beU, 0x3ed2f2733e72082eU, 0xbeaa35543e90d72bU, 0xbeaa4fa13eba640bU,
  0xbe4f0d24be8959c4U, 0x3e995475bcd22818U, 0x3ea8f6a8be232314U, 0x3ec3e83bbec913bbU,
  0x3d92a0c7bd7708f6U, 0x3e2d912b3de9eeecU, 0x3ead7ad73d4cca15U, 0x3f301132bda09685U,
  0xbd12fad6be76d331U, 0x3e10e3743ea50b6bU, 0xbae15e003e93228dU, 0xbe7df7a4beb93e17U,
  0x3dcb27893c616a57U, 0x3e6126aabcbb996bU, 0xbe946be43e734c93U, 0x3e9baa79bd9970c1U,
  0x3ec8a5c9bed83590U, 0xbe8faa7a3e609d2fU, 0xbe11d7343ea75137U, 0x3f2ecba4bf0893c4U,
  0xbec409ea3dbc724dU, 0xbd6968433eedb0d0U, 0x3eade794bf3ad80aU, 0x3d9885a63e73770fU,
  0xbda781cd3f121ed0U, 0x3d9930dc3e9912b3U, 0xbdb4f9c43f17aecbU, 0xbf0afa743ebc5539U,
  0xbf05cec7bd2a8fc4U, 0x3efef3b43f51c0b3U, 0xbe59700a3e4a5f85U, 0x3f2b4a9b3ef494c8U,
  0x3f5606353ee8389bU, 0x3ea81a633e8cdc73U, 0xbe81bf813f1977b3U, 0xbc622efb3ee54442U,
  0xbebc4ec83f003b37U, 0xbdb62f613f398f36U, 0xbe52ea1ebe55f0baU, 0x3effb7943ea55f99U,
  0x3f1a4c11be1952f5U, 0xbde68a5dbe44993bU, 0x3d599149bea5a49cU, 0x3dd76780bec65367U,
  0x3dbe23503cda8bb0U, 0x3ebb99a13f2ec010U, 0xbd94fdf53e279c6aU, 0x3e7986b53ea406d0U,
  0x3ec277533daf7f4fU, 0x3e947c013eb88152U, 0x3e38bf163f478076U, 0xbed928e43e84253cU,
  0xbde5927b3e924668U, 0xbf01c9853ec1a856U, 0x3db176b0bca13ee1U, 0x3cd78b10bd3dff8bU,
  0xbd9d4b24beae7aa2U, 0x3d1e4cd53befe640U, 0xbe55406bbea4219fU, 0xbb0ae0ff3e486390U,
  0x3f27a3983e8d5ebdU, 0x3d5af8ed3d38ab7eU, 0xbea56296be7b4762U, 0xbf142ea93e0401daU,
  0xbece83cc3e5da82dU, 0x3e78635cbe4d0e53U, 0x3ea22dbabf375d2bU, 0x3ed9ca0cbef23419U,
  0x3ee523d5bdd9a255U, 0x3e654a49bf0a06d1U, 0x3dd2394f3eb31fb8U, 0x3e54a8e03dfec126U,
  0xbea088bb3d721626U, 0x3ef797e4bd21e2b8U, 0xbe916d643e7e5e70U, 0x3dabdac5bead828cU,
  0xbcca102c3e5c0ffeU, 0x3ee06f25be910bf7U, 0xbca80d5b3d5e5774U, 0x3e6e3c9a3e60f252U,
  0xbcebe61a3e28c7b9U, 0xbe8a084fbe36ed24U, 0xbd3b1668bd1bbb4eU, 0x3c8684fc3f10a14cU,
  0x3e1148193e732c54U, 0x3e3215a6be2ece70U, 0xbdb8f34e3e8bf600U, 0x3f10c5ccbe0e6426U,
  0x3ef69059bdcf3f38U, 0x3ec47c09bc861020U, 0xbea89b773e67a68bU, 0x3f21bb49bed102afU,
  0xbd432f3fbe4496b6U, 0x3efe21023e55bfe6U, 0xbed3b0c73de12cd8U, 0x3dcf82d63ed7ca4eU,
  0x3ed8cc22be67c1e1U, 0x3e9921e83ea34f63U, 0x3d8fbde1bd63268eU, 0xbeb815e2be81d471U,
  0xbdb755e93e95c33cU, 0xbd0e484e3c10fc1bU, 0x3aba8800bf165166U, 0xbe9f54c7bc93d0a0U,
  0x3e88fcf0be3e35dbU, 0x3f051dd33db97914U, 0xbe9d77a03ef65296U, 0x3ddccd17be4572f1U,
  0x3c87068a3dda5960U, 0x3e116a093e09bddbU, 0x3e2d1b99bc4ff0bdU, 0x3dc6acbcbd220c02U,
  0x3c84a0133e53c8deU, 0xbd4abcd03d813476U, 0x3da92d8e3d971242U, 0x3c6c6ce33c5880c5U,
  0x3e585b883b15d420U, 0xbea9a8103f0361f3U, 0xbf21a21dbdd6ecb8U, 0xbe9eaec23efb1844U,
  0x3e5f2e2a3e3f1399U, 0xbce5b88c3f32382aU, 0xbf1e4b2a3ebe521dU, 0xbd4f311ebf54753fU,
  0x3cdbef2b3f166ab0U, 0xbf1e94e9bedb6d46U, 0xbf46f79d3ee5e8fbU, 0xbe0e094dbf57696bU,
  0x3eda2fb53e8f9ebcU, 0x3de3d2c13f02b8adU, 0xbdd536ad3ca071b4U, 0x3d1505993ecbb7ebU,
  0x3f0db945beb1a1b6U, 0x3eb6e119befef756U, 0x3d5a3ca23efc9414U, 0x3e0bbd2a3e5a6919U,
  0xbf791525beaf34d8U, 0x3eadfc57bf035d44U, 0xbf96b0093e762c1dU, 0xbef65d653ed430bbU,
  0xbf0dc6a53cdea7feU, 0xbf346af4be7dc1b4U, 0xbeebe5d3be962276U, 0xbf3905883e6b8f2fU,
  0x3e9c8aeabf0c3a0bU, 0x3ee08c36bf243b6eU, 0xbe8430013d935a3fU, 0x3f1a344c3ebccf73U,
  0xbec42140bf9a7948U, 0xbf17a1943f077a37U, 0xbf550601be9ff501U, 0x3f3565643e6fd6e4U,
  0xbe90e91ebf42135cU, 0xbe090f08be81e9b6U, 0xbf37b0be3f20633dU, 0x3db244cf3eaa21afU,
  0xbd8169e73f2447d3U, 0x3f20da143ef770f0U, 0xbe28ba3ebed17e4cU, 0xbebce37dbe707bedU,
  0x3e518a273f1f8330U, 0xbf9cc1e43eb4828fU, 0x3e059f76bf31f41dU, 0x3d7d6697bd892ca4U,
  0xbf247fb6bf43c214U, 0x3f2ef1ddbdbf64ccU, 0x3f2074673edc1767U, 0xbf1811ef3cd0a982U,
  0x3edd903d3f0a57a5U, 0xbf07df5ebe66403dU, 0x3ec77704bec676ebU, 0xbf72c4a53e0d5644U,
  0xbcbf42643c00820aU, 0xbe111f923ca39fa9U, 0xbd42419a3d795c4eU, 0x3da230ceU,
};


ai_handle g_network_weights_table[1 + 2] = {
  AI_HANDLE_PTR(AI_MAGIC_MARKER),
  AI_HANDLE_PTR(s_network_weights_array_u64),
  AI_HANDLE_PTR(AI_MAGIC_MARKER),
};

