const unsigned char model[] = {
  0x1c, 0x00, 0x00, 0x00, 0x54, 0x46, 0x4c, 0x33, 0x14, 0x00, 0x20, 0x00,
  0x1c, 0x00, 0x18, 0x00, 0x14, 0x00, 0x10, 0x00, 0x0c, 0x00, 0x00, 0x00,
  0x08, 0x00, 0x04, 0x00, 0x14, 0x00, 0x00, 0x00, 0x1c, 0x00, 0x00, 0x00,
  0x98, 0x00, 0x00, 0x00, 0xf0, 0x00, 0x00, 0x00, 0x14, 0x07, 0x00, 0x00,
  0x24, 0x07, 0x00, 0x00, 0x0c, 0x0c, 0x00, 0x00, 0x03, 0x00, 0x00, 0x00,
  0x01, 0x00, 0x00, 0x00, 0x10, 0x00, 0x00, 0x00, 0x00, 0x00, 0x0a, 0x00,
  0x10, 0x00, 0x0c, 0x00, 0x08, 0x00, 0x04, 0x00, 0x0a, 0x00, 0x00, 0x00,
  0x0c, 0x00, 0x00, 0x00, 0x1c, 0x00, 0x00, 0x00, 0x3c, 0x00, 0x00, 0x00,
  0x0f, 0x00, 0x00, 0x00, 0x73, 0x65, 0x72, 0x76, 0x69, 0x6e, 0x67, 0x5f,
  0x64, 0x65, 0x66, 0x61, 0x75, 0x6c, 0x74, 0x00, 0x01, 0x00, 0x00, 0x00,
  0x04, 0x00, 0x00, 0x00, 0x90, 0xff, 0xff, 0xff, 0x09, 0x00, 0x00, 0x00,
  0x04, 0x00, 0x00, 0x00, 0x08, 0x00, 0x00, 0x00, 0x6f, 0x75, 0x74, 0x70,
  0x75, 0x74, 0x5f, 0x30, 0x00, 0x00, 0x00, 0x00, 0x01, 0x00, 0x00, 0x00,
  0x04, 0x00, 0x00, 0x00, 0xba, 0xf9, 0xff, 0xff, 0x04, 0x00, 0x00, 0x00,
  0x0c, 0x00, 0x00, 0x00, 0x6b, 0x65, 0x72, 0x61, 0x73, 0x5f, 0x74, 0x65,
  0x6e, 0x73, 0x6f, 0x72, 0x00, 0x00, 0x00, 0x00, 0x02, 0x00, 0x00, 0x00,
  0x34, 0x00, 0x00, 0x00, 0x04, 0x00, 0x00, 0x00, 0xdc, 0xff, 0xff, 0xff,
  0x0c, 0x00, 0x00, 0x00, 0x04, 0x00, 0x00, 0x00, 0x13, 0x00, 0x00, 0x00,
  0x43, 0x4f, 0x4e, 0x56, 0x45, 0x52, 0x53, 0x49, 0x4f, 0x4e, 0x5f, 0x4d,
  0x45, 0x54, 0x41, 0x44, 0x41, 0x54, 0x41, 0x00, 0x08, 0x00, 0x0c, 0x00,
  0x08, 0x00, 0x04, 0x00, 0x08, 0x00, 0x00, 0x00, 0x0b, 0x00, 0x00, 0x00,
  0x04, 0x00, 0x00, 0x00, 0x13, 0x00, 0x00, 0x00, 0x6d, 0x69, 0x6e, 0x5f,
  0x72, 0x75, 0x6e, 0x74, 0x69, 0x6d, 0x65, 0x5f, 0x76, 0x65, 0x72, 0x73,
  0x69, 0x6f, 0x6e, 0x00, 0x0d, 0x00, 0x00, 0x00, 0x20, 0x06, 0x00, 0x00,
  0x18, 0x06, 0x00, 0x00, 0xc8, 0x05, 0x00, 0x00, 0xb0, 0x01, 0x00, 0x00,
  0x9c, 0x01, 0x00, 0x00, 0x4c, 0x01, 0x00, 0x00, 0xfc, 0x00, 0x00, 0x00,
  0xac, 0x00, 0x00, 0x00, 0xa4, 0x00, 0x00, 0x00, 0x9c, 0x00, 0x00, 0x00,
  0x94, 0x00, 0x00, 0x00, 0x74, 0x00, 0x00, 0x00, 0x04, 0x00, 0x00, 0x00,
  0x6a, 0xfa, 0xff, 0xff, 0x04, 0x00, 0x00, 0x00, 0x60, 0x00, 0x00, 0x00,
  0x10, 0x00, 0x00, 0x00, 0x00, 0x00, 0x00, 0x00, 0x08, 0x00, 0x0e, 0x00,
  0x08, 0x00, 0x04, 0x00, 0x08, 0x00, 0x00, 0x00, 0x10, 0x00, 0x00, 0x00,
  0x24, 0x00, 0x00, 0x00, 0x00, 0x00, 0x06, 0x00, 0x08, 0x00, 0x04, 0x00,
  0x06, 0x00, 0x00, 0x00, 0x04, 0x00, 0x00, 0x00, 0x00, 0x00, 0x00, 0x00,
  0x0c, 0x00, 0x18, 0x00, 0x14, 0x00, 0x10, 0x00, 0x0c, 0x00, 0x04, 0x00,
  0x0c, 0x00, 0x00, 0x00, 0xec, 0xb7, 0xa8, 0x9a, 0xd0, 0xf4, 0x0a, 0xe3,
  0x02, 0x00, 0x00, 0x00, 0x02, 0x00, 0x00, 0x00, 0x04, 0x00, 0x00, 0x00,
  0x06, 0x00, 0x00, 0x00, 0x32, 0x2e, 0x31, 0x39, 0x2e, 0x30, 0x00, 0x00,
  0xd6, 0xfa, 0xff, 0xff, 0x04, 0x00, 0x00, 0x00, 0x10, 0x00, 0x00, 0x00,
  0x31, 0x2e, 0x35, 0x2e, 0x30, 0x00, 0x00, 0x00, 0x00, 0x00, 0x00, 0x00,
  0x00, 0x00, 0x00, 0x00, 0xd0, 0xf5, 0xff, 0xff, 0xd4, 0xf5, 0xff, 0xff,
  0xd8, 0xf5, 0xff, 0xff, 0xfe, 0xfa, 0xff, 0xff, 0x04, 0x00, 0x00, 0x00,
  0x40, 0x00, 0x00, 0x00, 0x01, 0x67, 0x0c, 0x3f, 0x60, 0x53, 0xd3, 0xbe,
  0x5c, 0x5e, 0xf3, 0xbd, 0xf0, 0x27, 0x75, 0xbd, 0x18, 0xed, 0x73, 0xbe,
  0x70, 0x7b, 0x73, 0xbe, 0x8d, 0x55, 0xbd, 0xbe, 0x79, 0x25, 0xa9, 0x3c,
  0x1c, 0x1e, 0xc9, 0xbe, 0xd8, 0xa5, 0x6e, 0x3e, 0xe2, 0x78, 0x8d, 0xbe,
  0x60, 0x8d, 0xf5, 0x3e, 0x0a, 0xa3, 0x1a, 0x3f, 0xc0, 0xe0, 0x4d, 0xbe,
  0x81, 0xa6, 0xab, 0xbe, 0x59, 0x86, 0x8f, 0x3e, 0x4a, 0xfb, 0xff, 0xff,
  0x04, 0x00, 0x00, 0x00, 0x40, 0x00, 0x00, 0x00, 0x4d, 0x19, 0xaf, 0x3e,
  0x00, 0x00, 0x00, 0x00, 0x00, 0x00, 0x00, 0x00, 0x00, 0x00, 0x00, 0x00,
  0x00, 0x00, 0x00, 0x00, 0x00, 0x00, 0x00, 0x00, 0x00, 0x00, 0x00, 0x00,
  0x4d, 0xac, 0x79, 0x3f, 0x00, 0x00, 0x00, 0x00, 0xb2, 0x6f, 0x26, 0xbf,
  0x00, 0x00, 0x00, 0x00, 0xaa, 0x53, 0x89, 0xbc, 0x23, 0x9b, 0x6b, 0xbf,
  0x00, 0x00, 0x00, 0x00, 0x00, 0x00, 0x00, 0x00, 0x68, 0x03, 0x8b, 0xbe,
  0x96, 0xfb, 0xff, 0xff, 0x04, 0x00, 0x00, 0x00, 0x40, 0x00, 0x00, 0x00,
  0xb8, 0x06, 0x48, 0x3d, 0x72, 0x18, 0xe9, 0x3e, 0x00, 0x00, 0x00, 0x00,
  0x43, 0x99, 0xf2, 0xbe, 0xba, 0x9b, 0xca, 0x3e, 0x00, 0x00, 0x00, 0x00,
  0xf2, 0xe3, 0x9c, 0xbe, 0xb3, 0xf9, 0xe2, 0x3d, 0xae, 0x70, 0xd2, 0xbe,
  0x00, 0x00, 0x00, 0x00, 0xfe, 0xd0, 0xbe, 0x3d, 0xc4, 0x8c, 0xb9, 0x3e,
  0x00, 0x00, 0x00, 0x00, 0x31, 0x21, 0x45, 0xbd, 0x34, 0x9c, 0x5c, 0x3e,
  0x7e, 0xb7, 0x8b, 0xbe, 0xe2, 0xfb, 0xff, 0xff, 0x04, 0x00, 0x00, 0x00,
  0x04, 0x00, 0x00, 0x00, 0x69, 0x1f, 0xae, 0xbe, 0xf2, 0xfb, 0xff, 0xff,
  0x04, 0x00, 0x00, 0x00, 0x00, 0x04, 0x00, 0x00, 0xde, 0xf5, 0xcf, 0x3e,
  0xe7, 0xd1, 0x71, 0xbe, 0x86, 0x76, 0x8e, 0xbe, 0xd2, 0x4e, 0x73, 0x3e,
  0x74, 0x91, 0xbd, 0xbe, 0xac, 0x9a, 0x6a, 0xbe, 0xff, 0x90, 0xa1, 0x3e,
  0xdb, 0xc7, 0xb3, 0x3e, 0xae, 0xd9, 0x3c, 0x3e, 0x6f, 0x4a, 0x16, 0xbf,
  0x82, 0xcb, 0x04, 0x3e, 0x4f, 0x51, 0x8b, 0x3e, 0xe6, 0x80, 0xbd, 0xbe,
  0x4e, 0xa0, 0x18, 0x3e, 0x56, 0x8b, 0x52, 0xbe, 0x50, 0x8e, 0x12, 0x3e,
  0x39, 0xab, 0x01, 0xbf, 0x21, 0x55, 0xd7, 0x3e, 0xdb, 0xb3, 0xa4, 0x3e,
  0x71, 0xc1, 0xc3, 0x3e, 0x69, 0xb6, 0xc1, 0x3e, 0x6c, 0x9f, 0xf3, 0x3d,
  0x9d, 0x99, 0x8d, 0x3e, 0xef, 0x6c, 0x4e, 0x3f, 0x22, 0x7a, 0x1d, 0xbe,
  0x0a, 0xd8, 0x7b, 0x3d, 0x81, 0x5b, 0xbb, 0x3e, 0xd6, 0xf3, 0x2b, 0xbf,
  0x8c, 0xd1, 0x05, 0x3b, 0xd4, 0x35, 0x81, 0xbe, 0x58, 0xa7, 0x10, 0x3d,
  0x4e, 0xab, 0x89, 0x3e, 0x00, 0x96, 0xe1, 0xba, 0x8e, 0x87, 0x27, 0x3e,
  0x03, 0x02, 0xa5, 0x3e, 0xd0, 0xd0, 0xf8, 0xbd, 0xe0, 0xab, 0x89, 0xbd,
  0x9d, 0xa2, 0xcd, 0xbe, 0x04, 0x56, 0x8e, 0xbd, 0xa0, 0xc7, 0xb4, 0xbe,
  0x80, 0x1d, 0x87, 0xbc, 0xdc, 0xf3, 0x72, 0xbe, 0xb9, 0xa8, 0xa7, 0x3e,
  0xe1, 0xb9, 0xa5, 0xbe, 0x3d, 0x63, 0xba, 0x3e, 0x8a, 0x60, 0x12, 0x3e,
  0x98, 0x5a, 0xcf, 0xbe, 0xd6, 0x3f, 0x3a, 0xbe, 0x51, 0x0a, 0x84, 0xbe,
  0x39, 0x35, 0xc6, 0x3e, 0x13, 0x63, 0xc2, 0x3e, 0x91, 0xa6, 0x90, 0x3e,
  0x48, 0xe0, 0xdd, 0xbd, 0xa0, 0xd4, 0x83, 0xbd, 0x2b, 0xcf, 0x8b, 0x3e,
  0x20, 0xee, 0xdf, 0xbe, 0xf0, 0x4a, 0x9b, 0xbe, 0x3f, 0x4f, 0x20, 0x3e,
  0x11, 0x6e, 0xbf, 0x3e, 0xec, 0x72, 0xa3, 0x3e, 0xae, 0xf3, 0xc8, 0x3e,
  0x40, 0x93, 0x0c, 0xbd, 0x90, 0x62, 0x47, 0x3d, 0xd4, 0x32, 0x0d, 0xba,
  0x4f, 0xed, 0x1a, 0xbc, 0xc0, 0x6d, 0xce, 0xbb, 0x0b, 0x33, 0x82, 0xbe,
  0x64, 0x14, 0xad, 0x3d, 0x90, 0x76, 0xa0, 0xbe, 0xd0, 0x6c, 0x9d, 0xbd,
  0xb0, 0xd1, 0xca, 0x3c, 0x0b, 0x2d, 0x81, 0x3e, 0x23, 0x4a, 0x9e, 0x3e,
  0xf8, 0x61, 0x8f, 0xbf, 0x75, 0x66, 0xbf, 0xbe, 0x92, 0x8f, 0x8d, 0x3e,
  0xbf, 0x02, 0x5b, 0xbe, 0x64, 0x8a, 0xec, 0x3d, 0x3e, 0xa5, 0x06, 0x3e,
  0x2c, 0x3d, 0x70, 0xbe, 0x31, 0x0a, 0x96, 0x3e, 0x5b, 0x81, 0xd8, 0xbe,
  0x90, 0x51, 0x31, 0xbe, 0x75, 0xd6, 0xc9, 0xbe, 0xba, 0x32, 0xd6, 0xbe,
  0xce, 0x85, 0x59, 0x3e, 0xf3, 0x23, 0xa5, 0x3e, 0x7a, 0x68, 0x81, 0xbe,
  0x86, 0x46, 0x34, 0x3e, 0x47, 0xad, 0x99, 0x3e, 0x07, 0xe6, 0x9c, 0x3e,
  0x62, 0x52, 0x7e, 0xbe, 0x44, 0x18, 0xcd, 0xbe, 0x73, 0x9e, 0xc6, 0x3e,
  0x52, 0x1f, 0x39, 0xbe, 0x84, 0xcd, 0x84, 0xbe, 0x23, 0x5b, 0x66, 0x3e,
  0xe2, 0x06, 0x32, 0xbe, 0x45, 0x32, 0xab, 0xbe, 0xef, 0x0e, 0xac, 0x3e,
  0xd3, 0x75, 0xb6, 0x3e, 0xb1, 0xbc, 0xbf, 0x3e, 0x15, 0xea, 0xb2, 0x3e,
  0xf1, 0x34, 0x14, 0xbf, 0xa2, 0x94, 0x37, 0x3e, 0xdd, 0x4a, 0x31, 0x3e,
  0x9f, 0x42, 0xd8, 0x3e, 0x1c, 0xb0, 0xab, 0x3d, 0x3b, 0x42, 0x80, 0x3e,
  0x76, 0xf6, 0x7c, 0x3e, 0x16, 0xdc, 0x32, 0xbe, 0xc8, 0xca, 0x09, 0x3e,
  0x30, 0xcc, 0xfe, 0x3e, 0x45, 0xa7, 0xa4, 0xbe, 0x28, 0x67, 0x96, 0xbd,
  0x70, 0x0a, 0xb5, 0x3c, 0x75, 0xaf, 0x6a, 0xbe, 0xeb, 0xdf, 0xb4, 0x3e,
  0x80, 0x3d, 0x5c, 0x3b, 0x3b, 0xba, 0x3a, 0x3e, 0x08, 0x67, 0x26, 0xbd,
  0x0e, 0x27, 0x71, 0x3e, 0xe1, 0xc4, 0x88, 0xbe, 0xc8, 0xb8, 0x9b, 0xbc,
  0x1d, 0x10, 0xb7, 0xbe, 0x81, 0xe2, 0xc2, 0x3e, 0xfd, 0x7a, 0xae, 0x3e,
  0x95, 0x5c, 0x34, 0xbd, 0xec, 0xcf, 0xae, 0xbe, 0x30, 0xd2, 0x94, 0xbc,
  0xb3, 0x22, 0xbe, 0xbe, 0xd4, 0xe0, 0xaf, 0xbd, 0xc4, 0xda, 0xb2, 0x3d,
  0x61, 0x26, 0x9a, 0x3e, 0x47, 0xee, 0xcf, 0xbe, 0xa1, 0x49, 0x97, 0xbd,
  0xdc, 0xaa, 0xef, 0x3d, 0xef, 0x81, 0x79, 0x3e, 0x8a, 0x52, 0x65, 0x3e,
  0x36, 0x9d, 0xa8, 0x3e, 0xc9, 0xd2, 0xe7, 0x3e, 0x83, 0xe7, 0xb7, 0x3e,
  0xd8, 0xaa, 0x83, 0x3d, 0x9a, 0xf6, 0xb0, 0x3d, 0x8d, 0x3e, 0x7d, 0xbe,
  0xa0, 0xc7, 0x7f, 0x3d, 0xa0, 0x26, 0x8b, 0x3c, 0x78, 0x4f, 0x22, 0xbd,
  0xe0, 0xb0, 0x1b, 0x3d, 0xca, 0xdd, 0x04, 0x3e, 0xe9, 0x9f, 0x92, 0x3e,
  0x98, 0x21, 0x81, 0xbe, 0x84, 0xf4, 0x6e, 0xbe, 0x2a, 0xc3, 0x25, 0xbe,
  0xac, 0x40, 0xe4, 0x3d, 0xa8, 0x47, 0x4b, 0xbe, 0x26, 0x5e, 0xd9, 0xbe,
  0xf8, 0xfc, 0x66, 0xbd, 0xec, 0x50, 0xe4, 0xbd, 0x6b, 0x0b, 0xa2, 0x3e,
  0xae, 0x31, 0xc0, 0x3e, 0xe3, 0x06, 0x9e, 0x3e, 0x46, 0xb4, 0xc8, 0xbe,
  0xa6, 0x22, 0x8b, 0xbe, 0x54, 0x68, 0xfa, 0x3d, 0xe8, 0x8c, 0x20, 0x3d,
  0x76, 0x9a, 0x86, 0xbe, 0x46, 0x57, 0x8d, 0x3d, 0x9c, 0x5c, 0xc5, 0xbe,
  0xed, 0x9a, 0x10, 0x3e, 0xd8, 0x58, 0xbf, 0xbe, 0x68, 0xa8, 0x61, 0x3c,
  0xe9, 0x3c, 0xc0, 0xbc, 0x0f, 0x2c, 0x9e, 0xbe, 0xb0, 0x6b, 0xe5, 0x3c,
  0xd0, 0x38, 0x5f, 0xbd, 0x33, 0x79, 0x97, 0x3e, 0x22, 0x4b, 0x85, 0xbe,
  0xbc, 0x84, 0x2e, 0xbe, 0xe1, 0x17, 0xc7, 0x3e, 0x46, 0x7d, 0x03, 0xbe,
  0x46, 0x35, 0x18, 0xbe, 0x30, 0x67, 0x51, 0x3d, 0xa6, 0x59, 0x07, 0x3f,
  0x81, 0x54, 0xd7, 0x3e, 0x0e, 0x75, 0x63, 0xbf, 0xa6, 0x79, 0x0d, 0x3e,
  0x12, 0xb9, 0x76, 0x3e, 0x0a, 0x6f, 0x24, 0xbf, 0x77, 0x30, 0xc9, 0x3e,
  0x1c, 0xaf, 0xe7, 0x3d, 0x3f, 0x8e, 0x4b, 0xbf, 0xe0, 0x1e, 0xcb, 0xbd,
  0x03, 0x52, 0xba, 0x3e, 0x5c, 0xb1, 0x81, 0xbe, 0xf4, 0xa9, 0xfe, 0x3d,
  0x64, 0xb1, 0xe8, 0xbd, 0x97, 0x47, 0xdb, 0x3e, 0x26, 0x6c, 0x5d, 0x3e,
  0x70, 0x0f, 0x02, 0xbd, 0x69, 0x10, 0x93, 0x3e, 0x6c, 0xb4, 0xc3, 0x3d,
  0x90, 0xad, 0x92, 0xbe, 0x1c, 0xf9, 0xf9, 0xbd, 0x42, 0xf9, 0x23, 0x3e,
  0x2a, 0xcf, 0x07, 0x3e, 0x48, 0x9c, 0xd9, 0xbd, 0x70, 0xcd, 0x8e, 0xbe,
  0x10, 0x8a, 0x4f, 0xbe, 0x5c, 0x17, 0xc9, 0xbd, 0x7d, 0xc4, 0xa3, 0x3e,
  0x70, 0x7c, 0x1f, 0x3d, 0x35, 0xb9, 0x8f, 0x3e, 0x09, 0x30, 0x91, 0x3e,
  0x10, 0x81, 0x97, 0xbd, 0x19, 0xf5, 0xb1, 0x3d, 0x25, 0x54, 0xcb, 0xbe,
  0xee, 0x37, 0xa4, 0xbe, 0xfa, 0x9e, 0x92, 0xbe, 0x1a, 0x43, 0x09, 0xbe,
  0x41, 0x51, 0x63, 0xbe, 0x3c, 0x98, 0xe6, 0xbd, 0xb6, 0x51, 0x4f, 0x3e,
  0x11, 0x67, 0x59, 0xbe, 0x0b, 0x28, 0x96, 0x3e, 0x36, 0x6d, 0x29, 0x3e,
  0xb1, 0xbe, 0xc3, 0x3e, 0xf0, 0x74, 0x34, 0x3d, 0xc8, 0xcc, 0x83, 0xbd,
  0xfa, 0xef, 0x38, 0x3e, 0x40, 0x20, 0x44, 0xbc, 0x1b, 0x3d, 0x6b, 0x3e,
  0x2c, 0x52, 0x12, 0xbe, 0xd1, 0x76, 0x91, 0x3b, 0x56, 0x83, 0x16, 0x3e,
  0x09, 0x59, 0x82, 0xbe, 0x57, 0x90, 0xbe, 0x3d, 0xbe, 0x9e, 0x2e, 0xbe,
  0x80, 0xc4, 0x23, 0x3b, 0x66, 0xe6, 0xb1, 0x3e, 0x54, 0x77, 0xc3, 0xbe,
  0x86, 0x99, 0x19, 0x3e, 0x55, 0x2c, 0x8c, 0x3e, 0xe2, 0x36, 0x3d, 0x3e,
  0xe2, 0x6d, 0x1f, 0x3e, 0x51, 0xb8, 0xcb, 0x3e, 0x9c, 0x2d, 0xc1, 0xbe,
  0x5d, 0x78, 0x93, 0xbe, 0x04, 0x00, 0xb8, 0xbe, 0x9b, 0xba, 0x6c, 0x3e,
  0x93, 0x2e, 0xb2, 0x3e, 0xa5, 0xdb, 0x84, 0x3e, 0x39, 0xb9, 0xfb, 0x3e,
  0xc0, 0x60, 0xa6, 0xbb, 0xa0, 0x99, 0xb9, 0xbc, 0x24, 0x2f, 0xd8, 0x3e,
  0x00, 0x00, 0x06, 0x00, 0x08, 0x00, 0x04, 0x00, 0x06, 0x00, 0x00, 0x00,
  0x04, 0x00, 0x00, 0x00, 0x40, 0x00, 0x00, 0x00, 0x48, 0x2c, 0x22, 0xbf,
  0x10, 0x78, 0x82, 0xbf, 0x04, 0xde, 0x50, 0xbe, 0xe6, 0x4a, 0x8b, 0x3f,
  0x4b, 0x68, 0x8a, 0x3f, 0xd4, 0x76, 0x91, 0x3e, 0xf2, 0x93, 0x3e, 0x3f,
  0x38, 0x12, 0x16, 0xbe, 0xb4, 0x34, 0xef, 0x3e, 0x24, 0x75, 0xee, 0xbe,
  0x47, 0x0f, 0x81, 0xbd, 0x0b, 0xd7, 0xb3, 0x3f, 0x00, 0x97, 0xb4, 0xbd,
  0x09, 0xf4, 0x4c, 0x3e, 0xcd, 0x1f, 0x98, 0xbe, 0x3b, 0x27, 0xb8, 0x3e,
  0x30, 0xfb, 0xff, 0xff, 0x34, 0xfb, 0xff, 0xff, 0x0f, 0x00, 0x00, 0x00,
  0x4d, 0x4c, 0x49, 0x52, 0x20, 0x43, 0x6f, 0x6e, 0x76, 0x65, 0x72, 0x74,
  0x65, 0x64, 0x2e, 0x00, 0x01, 0x00, 0x00, 0x00, 0x14, 0x00, 0x00, 0x00,
  0x00, 0x00, 0x0e, 0x00, 0x18, 0x00, 0x14, 0x00, 0x10, 0x00, 0x0c, 0x00,
  0x08, 0x00, 0x04, 0x00, 0x0e, 0x00, 0x00, 0x00, 0x14, 0x00, 0x00, 0x00,
  0x1c, 0x00, 0x00, 0x00, 0xd8, 0x00, 0x00, 0x00, 0xdc, 0x00, 0x00, 0x00,
  0xe0, 0x00, 0x00, 0x00, 0x04, 0x00, 0x00, 0x00, 0x6d, 0x61, 0x69, 0x6e,
  0x00, 0x00, 0x00, 0x00, 0x03, 0x00, 0x00, 0x00, 0x80, 0x00, 0x00, 0x00,
  0x38, 0x00, 0x00, 0x00, 0x04, 0x00, 0x00, 0x00, 0x9a, 0xff, 0xff, 0xff,
  0x10, 0x00, 0x00, 0x00, 0x00, 0x00, 0x00, 0x08, 0x0c, 0x00, 0x00, 0x00,
  0x10, 0x00, 0x00, 0x00, 0xac, 0xfb, 0xff, 0xff, 0x01, 0x00, 0x00, 0x00,
  0x09, 0x00, 0x00, 0x00, 0x03, 0x00, 0x00, 0x00, 0x08, 0x00, 0x00, 0x00,
  0x01, 0x00, 0x00, 0x00, 0x03, 0x00, 0x00, 0x00, 0xca, 0xff, 0xff, 0xff,
  0x10, 0x00, 0x00, 0x00, 0x00, 0x00, 0x00, 0x08, 0x10, 0x00, 0x00, 0x00,
  0x14, 0x00, 0x00, 0x00, 0xba, 0xff, 0xff, 0xff, 0x00, 0x00, 0x00, 0x01,
  0x01, 0x00, 0x00, 0x00, 0x08, 0x00, 0x00, 0x00, 0x03, 0x00, 0x00, 0x00,
  0x07, 0x00, 0x00, 0x00, 0x02, 0x00, 0x00, 0x00, 0x04, 0x00, 0x00, 0x00,
  0x00, 0x00, 0x0e, 0x00, 0x16, 0x00, 0x00, 0x00, 0x10, 0x00, 0x0c, 0x00,
  0x0b, 0x00, 0x04, 0x00, 0x0e, 0x00, 0x00, 0x00, 0x18, 0x00, 0x00, 0x00,
  0x00, 0x00, 0x00, 0x08, 0x18, 0x00, 0x00, 0x00, 0x1c, 0x00, 0x00, 0x00,
  0x00, 0x00, 0x06, 0x00, 0x08, 0x00, 0x07, 0x00, 0x06, 0x00, 0x00, 0x00,
  0x00, 0x00, 0x00, 0x01, 0x01, 0x00, 0x00, 0x00, 0x07, 0x00, 0x00, 0x00,
  0x03, 0x00, 0x00, 0x00, 0x00, 0x00, 0x00, 0x00, 0x06, 0x00, 0x00, 0x00,
  0x05, 0x00, 0x00, 0x00, 0x01, 0x00, 0x00, 0x00, 0x09, 0x00, 0x00, 0x00,
  0x01, 0x00, 0x00, 0x00, 0x00, 0x00, 0x00, 0x00, 0x0a, 0x00, 0x00, 0x00,
  0x7c, 0x03, 0x00, 0x00, 0x24, 0x03, 0x00, 0x00, 0xcc, 0x02, 0x00, 0x00,
  0x90, 0x02, 0x00, 0x00, 0x34, 0x02, 0x00, 0x00, 0xdc, 0x01, 0x00, 0x00,
  0x90, 0x01, 0x00, 0x00, 0xfc, 0x00, 0x00, 0x00, 0x60, 0x00, 0x00, 0x00,
  0x04, 0x00, 0x00, 0x00, 0xc2, 0xfc, 0xff, 0xff, 0x00, 0x00, 0x00, 0x01,
  0x14, 0x00, 0x00, 0x00, 0x1c, 0x00, 0x00, 0x00, 0x1c, 0x00, 0x00, 0x00,
  0x0a, 0x00, 0x00, 0x00, 0x34, 0x00, 0x00, 0x00, 0x02, 0x00, 0x00, 0x00,
  0xff, 0xff, 0xff, 0xff, 0x01, 0x00, 0x00, 0x00, 0xac, 0xfc, 0xff, 0xff,
  0x1b, 0x00, 0x00, 0x00, 0x53, 0x74, 0x61, 0x74, 0x65, 0x66, 0x75, 0x6c,
  0x50, 0x61, 0x72, 0x74, 0x69, 0x74, 0x69, 0x6f, 0x6e, 0x65, 0x64, 0x43,
  0x61, 0x6c, 0x6c, 0x5f, 0x31, 0x3a, 0x30, 0x00, 0x02, 0x00, 0x00, 0x00,
  0x01, 0x00, 0x00, 0x00, 0x01, 0x00, 0x00, 0x00, 0x1a, 0xfd, 0xff, 0xff,
  0x00, 0x00, 0x00, 0x01, 0x14, 0x00, 0x00, 0x00, 0x1c, 0x00, 0x00, 0x00,
  0x1c, 0x00, 0x00, 0x00, 0x09, 0x00, 0x00, 0x00, 0x74, 0x00, 0x00, 0x00,
  0x02, 0x00, 0x00, 0x00, 0xff, 0xff, 0xff, 0xff, 0x10, 0x00, 0x00, 0x00,
  0x04, 0xfd, 0xff, 0xff, 0x58, 0x00, 0x00, 0x00, 0x73, 0x65, 0x71, 0x75,
  0x65, 0x6e, 0x74, 0x69, 0x61, 0x6c, 0x5f, 0x31, 0x2f, 0x64, 0x65, 0x6e,
  0x73, 0x65, 0x5f, 0x31, 0x5f, 0x32, 0x2f, 0x4d, 0x61, 0x74, 0x4d, 0x75,
  0x6c, 0x3b, 0x73, 0x65, 0x71, 0x75, 0x65, 0x6e, 0x74, 0x69, 0x61, 0x6c,
  0x5f, 0x31, 0x2f, 0x64, 0x65, 0x6e, 0x73, 0x65, 0x5f, 0x31, 0x5f, 0x32,
  0x2f, 0x52, 0x65, 0x6c, 0x75, 0x3b, 0x73, 0x65, 0x71, 0x75, 0x65, 0x6e,
  0x74, 0x69, 0x61, 0x6c, 0x5f, 0x31, 0x2f, 0x64, 0x65, 0x6e, 0x73, 0x65,
  0x5f, 0x31, 0x5f, 0x32, 0x2f, 0x42, 0x69, 0x61, 0x73, 0x41, 0x64, 0x64,
  0x00, 0x00, 0x00, 0x00, 0x02, 0x00, 0x00, 0x00, 0x01, 0x00, 0x00, 0x00,
  0x10, 0x00, 0x00, 0x00, 0xb2, 0xfd, 0xff, 0xff, 0x00, 0x00, 0x00, 0x01,
  0x14, 0x00, 0x00, 0x00, 0x1c, 0x00, 0x00, 0x00, 0x1c, 0x00, 0x00, 0x00,
  0x08, 0x00, 0x00, 0x00, 0x6c, 0x00, 0x00, 0x00, 0x02, 0x00, 0x00, 0x00,
  0xff, 0xff, 0xff, 0xff, 0x10, 0x00, 0x00, 0x00, 0x9c, 0xfd, 0xff, 0xff,
  0x52, 0x00, 0x00, 0x00, 0x73, 0x65, 0x71, 0x75, 0x65, 0x6e, 0x74, 0x69,
  0x61, 0x6c, 0x5f, 0x31, 0x2f, 0x64, 0x65, 0x6e, 0x73, 0x65, 0x5f, 0x31,
  0x2f, 0x4d, 0x61, 0x74, 0x4d, 0x75, 0x6c, 0x3b, 0x73, 0x65, 0x71, 0x75,
  0x65, 0x6e, 0x74, 0x69, 0x61, 0x6c, 0x5f, 0x31, 0x2f, 0x64, 0x65, 0x6e,
  0x73, 0x65, 0x5f, 0x31, 0x2f, 0x52, 0x65, 0x6c, 0x75, 0x3b, 0x73, 0x65,
  0x71, 0x75, 0x65, 0x6e, 0x74, 0x69, 0x61, 0x6c, 0x5f, 0x31, 0x2f, 0x64,
  0x65, 0x6e, 0x73, 0x65, 0x5f, 0x31, 0x2f, 0x42, 0x69, 0x61, 0x73, 0x41,
  0x64, 0x64, 0x00, 0x00, 0x02, 0x00, 0x00, 0x00, 0x01, 0x00, 0x00, 0x00,
  0x10, 0x00, 0x00, 0x00, 0x96, 0xfe, 0xff, 0xff, 0x00, 0x00, 0x00, 0x01,
  0x10, 0x00, 0x00, 0x00, 0x10, 0x00, 0x00, 0x00, 0x07, 0x00, 0x00, 0x00,
  0x28, 0x00, 0x00, 0x00, 0x1c, 0xfe, 0xff, 0xff, 0x1b, 0x00, 0x00, 0x00,
  0x73, 0x65, 0x71, 0x75, 0x65, 0x6e, 0x74, 0x69, 0x61, 0x6c, 0x5f, 0x31,
  0x2f, 0x64, 0x65, 0x6e, 0x73, 0x65, 0x5f, 0x31, 0x2f, 0x4d, 0x61, 0x74,
  0x4d, 0x75, 0x6c, 0x00, 0x02, 0x00, 0x00, 0x00, 0x10, 0x00, 0x00, 0x00,
  0x01, 0x00, 0x00, 0x00, 0xde, 0xfe, 0xff, 0xff, 0x00, 0x00, 0x00, 0x01,
  0x10, 0x00, 0x00, 0x00, 0x10, 0x00, 0x00, 0x00, 0x06, 0x00, 0x00, 0x00,
  0x38, 0x00, 0x00, 0x00, 0x64, 0xfe, 0xff, 0xff, 0x2b, 0x00, 0x00, 0x00,
  0x73, 0x65, 0x71, 0x75, 0x65, 0x6e, 0x74, 0x69, 0x61, 0x6c, 0x5f, 0x31,
  0x2f, 0x64, 0x65, 0x6e, 0x73, 0x65, 0x5f, 0x31, 0x2f, 0x42, 0x69, 0x61,
  0x73, 0x41, 0x64, 0x64, 0x2f, 0x52, 0x65, 0x61, 0x64, 0x56, 0x61, 0x72,
  0x69, 0x61, 0x62, 0x6c, 0x65, 0x4f, 0x70, 0x00, 0x01, 0x00, 0x00, 0x00,
  0x10, 0x00, 0x00, 0x00, 0x32, 0xff, 0xff, 0xff, 0x00, 0x00, 0x00, 0x01,
  0x10, 0x00, 0x00, 0x00, 0x10, 0x00, 0x00, 0x00, 0x05, 0x00, 0x00, 0x00,
  0x3c, 0x00, 0x00, 0x00, 0xb8, 0xfe, 0xff, 0xff, 0x2d, 0x00, 0x00, 0x00,
  0x73, 0x65, 0x71, 0x75, 0x65, 0x6e, 0x74, 0x69, 0x61, 0x6c, 0x5f, 0x31,
  0x2f, 0x64, 0x65, 0x6e, 0x73, 0x65, 0x5f, 0x31, 0x5f, 0x32, 0x2f, 0x42,
  0x69, 0x61, 0x73, 0x41, 0x64, 0x64, 0x2f, 0x52, 0x65, 0x61, 0x64, 0x56,
  0x61, 0x72, 0x69, 0x61, 0x62, 0x6c, 0x65, 0x4f, 0x70, 0x00, 0x00, 0x00,
  0x01, 0x00, 0x00, 0x00, 0x10, 0x00, 0x00, 0x00, 0x8a, 0xff, 0xff, 0xff,
  0x00, 0x00, 0x00, 0x01, 0x10, 0x00, 0x00, 0x00, 0x10, 0x00, 0x00, 0x00,
  0x04, 0x00, 0x00, 0x00, 0x1c, 0x00, 0x00, 0x00, 0x10, 0xff, 0xff, 0xff,
  0x0f, 0x00, 0x00, 0x00, 0x61, 0x72, 0x69, 0x74, 0x68, 0x2e, 0x63, 0x6f,
  0x6e, 0x73, 0x74, 0x61, 0x6e, 0x74, 0x32, 0x00, 0x01, 0x00, 0x00, 0x00,
  0x01, 0x00, 0x00, 0x00, 0xc2, 0xff, 0xff, 0xff, 0x00, 0x00, 0x00, 0x01,
  0x10, 0x00, 0x00, 0x00, 0x10, 0x00, 0x00, 0x00, 0x03, 0x00, 0x00, 0x00,
  0x1c, 0x00, 0x00, 0x00, 0x48, 0xff, 0xff, 0xff, 0x0f, 0x00, 0x00, 0x00,
  0x61, 0x72, 0x69, 0x74, 0x68, 0x2e, 0x63, 0x6f, 0x6e, 0x73, 0x74, 0x61,
  0x6e, 0x74, 0x31, 0x00, 0x02, 0x00, 0x00, 0x00, 0x10, 0x00, 0x00, 0x00,
  0x10, 0x00, 0x00, 0x00, 0x00, 0x00, 0x16, 0x00, 0x18, 0x00, 0x14, 0x00,
  0x00, 0x00, 0x10, 0x00, 0x0c, 0x00, 0x08, 0x00, 0x00, 0x00, 0x00, 0x00,
  0x00, 0x00, 0x07, 0x00, 0x16, 0x00, 0x00, 0x00, 0x00, 0x00, 0x00, 0x01,
  0x10, 0x00, 0x00, 0x00, 0x10, 0x00, 0x00, 0x00, 0x02, 0x00, 0x00, 0x00,
  0x1c, 0x00, 0x00, 0x00, 0x9c, 0xff, 0xff, 0xff, 0x0e, 0x00, 0x00, 0x00,
  0x61, 0x72, 0x69, 0x74, 0x68, 0x2e, 0x63, 0x6f, 0x6e, 0x73, 0x74, 0x61,
  0x6e, 0x74, 0x00, 0x00, 0x02, 0x00, 0x00, 0x00, 0x01, 0x00, 0x00, 0x00,
  0x10, 0x00, 0x00, 0x00, 0x00, 0x00, 0x16, 0x00, 0x1c, 0x00, 0x18, 0x00,
  0x00, 0x00, 0x14, 0x00, 0x10, 0x00, 0x0c, 0x00, 0x00, 0x00, 0x00, 0x00,
  0x08, 0x00, 0x07, 0x00, 0x16, 0x00, 0x00, 0x00, 0x00, 0x00, 0x00, 0x01,
  0x14, 0x00, 0x00, 0x00, 0x20, 0x00, 0x00, 0x00, 0x20, 0x00, 0x00, 0x00,
  0x01, 0x00, 0x00, 0x00, 0x3c, 0x00, 0x00, 0x00, 0x02, 0x00, 0x00, 0x00,
  0xff, 0xff, 0xff, 0xff, 0x01, 0x00, 0x00, 0x00, 0x04, 0x00, 0x04, 0x00,
  0x04, 0x00, 0x00, 0x00, 0x1e, 0x00, 0x00, 0x00, 0x73, 0x65, 0x72, 0x76,
  0x69, 0x6e, 0x67, 0x5f, 0x64, 0x65, 0x66, 0x61, 0x75, 0x6c, 0x74, 0x5f,
  0x6b, 0x65, 0x72, 0x61, 0x73, 0x5f, 0x74, 0x65, 0x6e, 0x73, 0x6f, 0x72,
  0x3a, 0x30, 0x00, 0x00, 0x02, 0x00, 0x00, 0x00, 0x01, 0x00, 0x00, 0x00,
  0x01, 0x00, 0x00, 0x00, 0x01, 0x00, 0x00, 0x00, 0x10, 0x00, 0x00, 0x00,
  0x0c, 0x00, 0x0c, 0x00, 0x0b, 0x00, 0x00, 0x00, 0x00, 0x00, 0x04, 0x00,
  0x0c, 0x00, 0x00, 0x00, 0x09, 0x00, 0x00, 0x00, 0x00, 0x00, 0x00, 0x09
};
